[PAD]
[UNK]
[MASK]
[SEP]
[CLS]
##xsq
##nly
##agc
##pta
##hyk
##mpi
##vfv
##xdi
##kqh
##vsl
##ntm
##hym
##nmr
##kvx
##fkv
##csr
##wix
##fxk
##rfq
##ead
##vae
##efh
##gqq
##tdw
##lna
##afq
##wlp
##swn
##msm
##aai
##wdx
##dgk
##tiw
##aix
##vhw
##lhf
##ltx
##lpl
##wtk
##src
##mpg
##aak
##tmt
##csl
##seh
##dye
##qrv
##hge
##clq
##vla
##apq
##wkg
##weq
##wdd
##fwk
##wxi
##frd
##igs
##qxm
##pcn
##xaf
##wga
##tft
##isf
##cgr
##cwy
##ksp
##vtg
##upp
##gdv
##hav
##dgs
##dgi
##hkh
##ylv
##vxm
##tdn
##mak
##idd
##exn
##kdl
##qwi
##anv
##kwk
##fvg
##wmp
##vvh
##hcx
##yxn
##wwq
##rrr
##tze
##yic
##dvv
##mxw
##qhy
##vmd
##wep
6qd
##set
##xer
##xhi
##hvs
##dak
##hkc
##tit
##kkt
##png
##fac
##nfi
##tni
##aya
##qwd
##kqi
##hcv
##tkt
##frp
##anr
##wdq
##hqc
##tpl
##lmw
##inl
##hyq
##den
##mnn
##ygr
##xme
6yl
##mtx
66g
##heg
6nk
##evk
##lwt
##stv
##sxn
##ddm
##fsp
##ers
##atm
##dqw
##sxx
##wiv
##vfs
##pfv
##mfr
##dyc
##gwe
6rn
##xly
##tan
##cqk
##ewq
##kkk
6kh
##mrl
##lnw
##daq
##mdr
##ugt
##irb
##qml
##cll
##ket
6xf
##kag
##sne
##hgn
##lah
##wme
##xyq
##vav
##mna
##dsg
##ltw
##ncq
##gri
##xcc
##csh
6ks
##ykg
##sqn
##mtq
##qes
##qwv
##ans
##rqg
##pae
##yra
##eta
##cnq
##wpw
##mey
##cxx
##xei
##ngn
##yak
##tig
##lwf
##pnc
##hlc
6hm
##qtr
##lwc
##rly
##wcf
##fgn
##tvs
6cq
##xes
##ydx
##cep
##vnm
##mti
##ywm
##sie
##lre
##xdx
##swh
##rrk
##kve
##wwp
##etm
##wgy
##tke
##edp
##ypf
##bxi
##rgg
##tav
##kln
##fqw
##gsq
##lmp
##hvn
##hmz
##rys
##ncl
##cmp
##wkw
##dsp
##dry
##yhv
##ltf
##cdc
##rpq
##gnq
##yyk
##nnk
##eqr
##mmr
##qav
##ryk
##ctk
##fcc
##vdr
##xef
##drd
##mnm
##rfw
##ang
##phe
##qgc
##mmk
##dzx
##qld
##hga
##ekd
##xfx
##anw
##tsr
##ckk
##xkr
##asm
##dtd
##mpl
##tfa
##ypm
##stx
##xkc
##ryy
##cft
##trk
##cym
##zcf
##est
##ffe
##naf
##xrd
##een
##qlg
##ewn
##ssn
##gfe
##rgl
##dwe
##gmg
##xks
##yhg
##vlt
##les
##nxr
##hpw
##exe
##xtc
##dsw
##xtr
##yya
##erg
##wak
##ghf
##ahd
##lhr
##ymd
##mqm
##xfe
##yng
##qpx
##xap
##gnm
##ery
##rfn
##dyf
##wii
##hyx
##cec
##epm
##qqh
##nfg
##mht
##hky
##emt
##iya
##hka
6nf
##xrt
##tkk
##mln
##xsn
##kik
##zxf
##pnx
##xge
##pih
##hgs
##gdn
##xah
6wq
##wpd
##fec
##epn
##ipf
##xfk
##scg
##ahy
##idi
##iit
##bik
##kmc
##vew
6hg
##qaa
##lkx
##eci
##hnq
##gnp
##lyt
##ady
##ihv
##aii
##fnt
##efc
##ily
##nap
##ctp
##fgc
##yxl
##ctf
##nhh
##wrl
##nmc
##eyg
##yec
##ric
##ddt
##vgh
##isv
##tpn
##sle
##xew
##aqv
##gph
##ydc
##vxn
##ncw
##lrw
##ina
##kyg
##wan
##mnd
##ehd
##gcn
##tsa
##wkx
##wtp
##fis
##tih
##iev
##iar
##sak
##qkh
##mhg
##prv
##mdy
##cqy
##epe
##egd
##xgk
##ifv
##imd
##xvk
##chy
##qdn
##kfq
6kt
##tlm
##pce
##bis
##hrv
##cii
##nwv
##try
##hve
##iat
##rqc
##lxt
##qhv
##hdc
##tvm
##ydf
6fp
##myh
##vtv
##pny
##lvg
##knw
##qvt
##aqm
##yri
##qvn
##xnt
##nex
##xdh
##sdl
6vn
##dvx
##eym
##chk
##wcv
##tqx
##lfk
##sfq
##mlv
##nkp
##pyh
##fmn
##fxx
6gr
##tyx
##tln
##nxi
6ln
##ipr
##van
##nxf
##naq
##gtv
##nsl
##aei
##lnh
##wvr
##lxk
##err
##cly
##tnq
##qsg
##qny
##evv
##scf
##mlg
##swe
##eil
6al
##ias
##cgq
##lex
##tci
##nip
##fnl
##cwa
##sqq
##qfs
##iey
##dlt
##wwv
##mcx
##gxp
6fn
##vqp
##ggi
##yvg
##qlw
##vrr
##ygf
##kqt
##vmr
##yve
##hit
##dkl
##nsi
##qaw
##qri
##twm
##mdm
##amm
##paa
##xpl
##xqe
##rrc
##xfa
##rpw
##tms
##tuh
##whi
##tlv
##tgq
##dxi
##ppa
##dnl
##wah
##ysm
##lde
##cph
##ddf
##cht
##txm
##lqx
##dwp
##yyt
##vgc
##cdd
##xdk
##esk
##vyt
##xng
##xee
##qnw
##axv
##ema
##ykl
##nhc
##nnq
##mys
6rf
##tvp
##cml
##slm
##wkd
##xke
##kte
##gds
##ind
##hkl
##htp
##rhk
##cxn
##nea
##ich
##qix
##cnx
##kwf
##klv
##csy
##wmq
##wat
##gan
##xcw
##isr
##inx
##aim
##nev
##wgl
##hdh
##hxr
##gap
##kyh
##fsc
##fmg
##ewt
##inp
6pn
##crt
##add
##ean
##vsk
##hac
##emg
##edx
##agq
##lgg
##rsx
6we
##irf
##qxa
##evq
##vwq
##sep
##ilm
##uaa
##maw
##mui
##ckq
##nvs
##yvk
##llq
##kif
##fri
##qcd
##dht
##rkw
##yvs
6hi
##hma
##niw
##mhm
##dvn
##srr
##yap
##acn
##lns
##eal
##epf
##cff
##yam
##wxh
##tws
##kec
##cqe
##qft
##iyi
##mlh
##cyv
##ehm
##dtm
##lni
##hsf
##qmt
##twh
##kpg
##mli
##cih
##xsc
##dmv
##xar
##gxv
##mal
##fia
##hgf
##mdd
##mgn
##qrx
##iqa
##dex
6wt
6cg
##vpy
##kws
##pqt
##wng
##wrd
##pet
##mnh
##dhs
##adc
##cas
##kma
##hkn
##pqa
##feh
##yqi
##imq
##xia
##yyf
##gnh
##idw
##vgy
##rmm
##twt
##vqw
##sim
##pmh
##xcv
##fai
##csb
##ekm
##gkh
##dqa
##sqx
##vkd
##qhf
##kpd
##lfg
##iav
##mkw
##ecd
##ief
##fqt
##vmg
##ynk
##wfy
##yhs
##nws
##wxg
##iad
##ksi
##kmp
##gti
##itp
##ixh
##lfs
##chh
##hiv
##glr
##iwd
##vve
##afe
##tgb
##vte
##kic
##hyh
##hei
##tql
##qmf
##xps
##rgn
##xaq
##axi
##klm
##bpy
##smy
6cm
##alf
6ya
##rpd
6di
##vcg
##fng
##kfp
##tmq
##ppd
##acv
##adk
##icn
##wem
##cgd
##alm
##lip
##nkv
##agt
##kfm
##bst
##dcl
##myg
##ipn
##sbi
6xa
66h
##nph
##sci
##sve
##cqg
##lme
##ctc
##vlx
##fqi
##hmf
##yft
##xdv
##pds
##crr
6cw
##rmg
6ef
##uny
##ffd
##vht
##thp
##kky
##pvp
##pfc
##rfv
##lmx
##dpk
##fnr
##lnq
##nxs
##pyd
##pah
##lyq
##srw
##vlv
##hyn
##nai
##gsy
##ngm
##aes
##anf
##pkr
##ida
##ivd
##rxf
##xev
##atp
##vyl
##xav
##pan
##klh
##dis
##pye
##mxy
##pgl
##qyf
##mrh
6me
##lrk
##ssi
##eqn
##ewl
6ye
##wdy
##exi
##rnx
6cc
##yes
##vld
##fsv
##tky
##qpi
##xwl
6wl
##xix
6xt
##ela
##mta
##lhh
##hdp
##fpd
##ncc
##sfg
##mki
##kme
##awf
##nlh
##kri
##wgt
##mhq
##syg
##wrq
##ese
##cxr
##dkk
##xey
##ghp
##iaw
##sgw
##kls
##xlm
##rlm
##eaa
##gak
##lay
##gqf
##ddx
##gyg
6xw
##xwr
##lkh
##vhy
##skm
##wkp
##kdy
##kix
##rim
##cvq
##rvf
##sdy
##lfr
##vca
##eds
##rfg
##ifg
##ltg
##nqn
##trf
##kqg
##lic
##crv
##dgy
##ksy
##wpv
##vkq
##dfl
##ktm
##yle
##mnw
##awq
##irc
##fht
##dcy
##pea
##cys
6tm
##dwd
##sqk
##phy
##tpm
##cgp
##tmf
##gvw
##rfy
##caf
##ymx
##ggk
##acr
##rvy
##slr
##wag
##tge
##eca
##xmh
##spr
6da
##hci
##aca
##dix
##lfx
##dvr
##mxq
##kpk
##fwp
##lpn
##pla
6wy
##krr
##mqq
##ngy
##qtq
6wm
##hps
6em
##nkm
##aih
##rrf
##fyg
##wqs
##ply
6ql
6el
##vye
##ird
##lhm
##hhy
##mnq
##kbs
##gcq
##dhq
##pfn
##mgc
##fdr
##asq
##hqe
##and
##rwm
6lh
##tnf
##qwt
##tnk
##mek
##gig
##ttq
##cvp
##mdh
##mge
##keq
##qqv
##gip
##nsg
##kvv
##kvw
##cam
##lhv
##ngp
##yhd
##lys
##met
##acs
##rnq
##flm
##kia
##xce
##rel
##qpe
##hwt
##fpv
##cye
##pst
##mex
##sqi
##wth
##gcr
##rki
##pgy
##kgc
##ehv
##fmt
##hql
##vwa
##fws
##gey
##qxv
##kvg
##rni
##dph
##frz
##fhn
##daf
##gfg
##lkt
##ymg
##rcm
##fgh
##qqc
##msx
##gtr
##fpq
##kii
##knc
##sks
##xff
##tfl
##kqw
##tlk
##wld
##xbi
##edi
##ugy
##drx
##plh
##wts
##qgi
##qkx
##srl
##qmb
##nys
##khe
##kvs
##ain
##tdy
6gq
6tc
##ltq
##vgs
##svh
##ngv
##kiq
6fg
6ac
##lva
##rgx
##edl
##pfs
##vst
##rdg
##fpy
##sty
##lra
##htn
##fnf
##ipp
##ldn
##ynt
##nnt
##yfy
##qma
##vvc
##kql
##tnx
##wqt
##iqx
##yly
##ssa
6ri
##fal
##sxp
##qva
##slq
##fnn
##qkw
##fax
##ycq
##vvf
##api
##pak
##wch
##dgp
##vmt
##sli
##wps
##esn
##yka
##fae
##vti
##cfi
##hvh
##hnm
##vwp
##dgl
##eqe
##hgi
##kkx
##ypc
##yeq
##vmp
##fpp
##egl
6qv
##frg
##nef
##dhy
##hwr
##alw
##cpd
##waq
##mat
##smf
##snx
6yh
##pda
##fct
##wvd
##alh
##axl
##nrm
##axx
##apf
##ien
##eih
##tay
##pkl
##lsv
##dpq
##rre
##pkk
##pkm
##erx
##mwf
6ni
##gnl
##erc
##viq
##ngi
##trp
##scv
##xha
##tna
##agi
##lsa
6te
##xvc
##wcq
##iis
##yte
##yxm
##pgv
##ids
##ykm
##hkv
##tsq
##ffc
##lmm
##glh
##dfp
##vry
##gvp
##gsg
##mxa
##mkr
##rld
##vsw
##ptw
##fcg
##eva
##pxy
##mxl
##qif
##lwh
##vlr
##esv
6se
##lwr
##vev
##kmx
##lly
##ilh
6ph
##qtw
##gqa
##nnc
##smn
##mkd
6ir
##lpc
##hah
##xqm
##mqc
##ldc
##hxs
##nkx
##mmd
##mwy
##nya
##mca
##qic
##fks
##qrm
##xwg
##hne
##vdl
##wvl
##wgv
##arv
##kyi
##dng
##qhm
##lwk
##mpa
##iah
##dmg
##xhy
##lii
##rps
##vky
##dxr
##xrn
##lsr
##kgg
##yvr
##tag
##xlg
##gsr
##qcl
##npd
##clw
##vlf
##mqn
##nci
##yvv
##ebf
##nfx
6gp
##pwm
##mke
##nie
##qyk
##crf
##ldy
##kdp
##ian
##fen
##fdf
6ik
##ppw
6vk
##sfa
##hem
##ntx
##gyv
##nck
##pgg
##hwq
##ptv
##fgy
##fip
##vif
##cfl
##sfx
##whl
##das
6yt
##lvb
##kpl
##tet
##pkc
##qte
##ght
##dft
##tre
##knr
##ims
##scm
##vdg
##itr
##yiv
##lxn
##xxk
##haf
##nnm
##rke
##xvp
6gg
##qiw
##tdk
##lcc
##tct
##tal
##cnh
##ngc
##syp
6wn
##dlf
##qnp
##vyk
##wcw
##vpq
##hwa
##mym
##mtr
##gpa
##kqa
##nmx
##ggg
##vrh
##ilk
##gww
##aqn
6yp
##ewf
##prs
##iyy
##nwn
##ddi
##wxf
##hhd
##fka
##tcp
##kpv
##gmf
##dyx
##ett
##kwd
##fcx
##rck
##clk
##nhv
6yn
##kla
##pwe
6vg
##dhx
##yts
##ivi
##wny
##spi
6lf
##sft
##cay
##seg
##xep
##mgh
##fwe
##qfl
66v
##lfa
##yvy
##ewx
##kkb
##ivg
##vgf
##kck
##hqr
##gie
##avl
##ils
##yye
##qwg
##qgs
##glt
##kdq
##del
##ill
##lvx
##wmg
##aqy
##hyg
##lew
##dcp
##rrp
66r
##pga
##qex
6mq
##tcq
##lef
6pc
##nst
##nal
##amf
##imf
##mxt
##ivy
##lav
##pvq
##dag
6ih
##pie
##mia
##lmn
##fry
##yqt
##dke
##dmt
##twk
##hfv
##led
##eie
##kgx
##hll
##aen
##gai
##afl
##tqe
##tef
##vfy
##ikx
6ss
##rti
##kaw
##wxp
##nvd
##efl
##pxh
##nme
##xpa
6ad
##kww
##xmt
##peq
##erk
##egk
##nsy
##xxg
##pew
##mwe
##myq
##vef
##ldz
##myi
##kkq
##xni
##xpn
##rkh
##ylm
##yiw
##mcn
##ayw
##krl
##lel
##yfk
##vpk
##ryr
##gfi
##vcv
##svp
##yrm
##ccn
##lpt
##vtc
##aks
##cev
##ytd
##kpp
##sgh
##ftn
6rd
##mel
##aia
##sca
##yda
##pdn
##hrx
##rzh
##rce
##fad
##vxd
##pki
##vil
##khm
##lag
##eem
##vgp
##dwq
##lhp
##phh
##rfi
##ask
##fed
##hcr
6xk
##rka
##lhn
##gyt
##rtp
##yel
##gvn
##pgp
##cri
##rrx
##fki
##hpq
##iip
##dnp
##cpa
##aky
##esf
##mpm
##mgt
##yxc
##dcg
##tsx
##gny
##has
##tlr
##dki
##mrg
##qyi
##erw
##eic
##hly
6fa
##emk
##kvq
##smg
##qsa
##nqp
##iln
##dyh
##xvs
##idn
##bes
##dgw
##ipg
##ptm
##lee
##iwc
##asl
##ndy
##mar
##lxv
##avd
##fvk
##qel
##rih
##wns
6xv
##vpe
##fyv
##dfq
##mwt
##fdg
##kkg
##ysh
##agl
##nxn
##dds
##trs
##cnt
##hni
##wes
##xnd
##dsk
6vs
##brl
##tqh
##agx
##yvh
##vkc
##pas
##kkd
##mqg
##glv
##gev
##xtd
##fiv
##hdx
##tgf
##kid
##cyr
##yxi
##xnw
##nda
##csu
##gem
##ixg
##qsp
##thl
##kye
##gam
##ecn
##rwe
##avh
##qit
##ism
##aym
##ekc
##xdc
##wpn
##ere
##epr
##cny
##frr
##tqv
##agd
##vlc
##klk
##hvc
##hmx
##kgn
##emp
##iyl
##gcm
##ege
##hvd
##sdm
##fei
##rep
##psk
6kc
##fkf
##ywq
##rsd
##ank
##kfk
##wyv
##tlh
##nek
##mnl
##sqp
##cqq
##yev
##vrg
##scw
##knf
##req
##fqx
##cvm
##lak
##smc
##tvc
##fwn
##tmn
##sds
##gtl
##dnn
##gmk
##ecs
##ipw
##vka
##qek
##rfh
##eny
##ggf
##rfe
##dyq
##iqt
##hee
##nhk
##gkn
##fck
##wmh
##ble
##fgl
##gkm
##txw
##ayt
##dxg
##vgl
6vy
##idf
##fhz
##sky
##vpt
##vlm
##dkr
##gfc
##tts
##mwc
6qt
##rix
##vma
##vfm
##ynr
##sys
##rcl
##ypl
##yll
##lnf
##hie
##mql
##lwd
##ewy
##wqi
##pxi
##pxq
##esr
##dld
##bgn
##wyk
##lqw
##pac
##tnc
##kyt
##apn
##xeg
##yxv
6hd
##irh
##nis
##gyc
##yat
##hqf
##enr
##cis
##aap
##rkr
##cxt
##nry
##pcd
##chv
##rqa
##eaq
##iin
##vdx
##cgn
##axm
##thv
##vnh
##tgd
##sbg
##ccy
##tls
##fmf
##cpc
##hiy
##ttg
##sqf
##aza
##iky
##kvp
##lqi
##hea
##emr
##pmm
##shl
##ata
##ikf
##axw
##mdv
##qas
##nfv
##nde
##pml
##dsi
##lwx
##axc
##qdp
##clc
##wac
##whg
##agm
##cca
##ghd
##thm
##asa
##qwe
##ayq
##qtd
##xws
##lyf
##xwy
##avf
##qmh
##xlw
##cln
##mls
##hiw
##ptq
##gyi
##yhq
##csm
##wyy
##yeg
##kkm
##aek
##wgi
##ahi
##lsh
##yhn
##swa
##aef
##rht
##xml
##gfn
##qsv
##rgc
##epa
##cpe
##qcg
##aer
##gwc
##wse
##rcx
##nyv
##lhq
##prt
##ayv
6mv
##xbn
##qss
##rlr
##ldx
##gtt
##csw
##kdr
##amv
##sff
##apc
##tek
##nwd
##eir
##wtx
##qde
##aaq
##nwh
##vqm
##nle
##wlv
##mwv
##biv
##dir
##eqq
##nhw
##rvi
##xph
##fvv
##vws
##phi
##bir
##nrn
##wpe
##tvh
##hss
##meh
##cqv
##mwi
##hsg
##nfq
##tye
##qtx
##rxt
##kgf
##iqc
##vrk
##ppf
##gnw
##tfp
##ldi
##qfw
##rrd
##yex
##ggh
##tns
##nps
##fdh
##ets
##nxw
##fil
##rvw
##gkv
##akf
##irt
6tq
6sr
##xfp
##vqc
##dnv
##psm
##ghr
6wv
##rww
##qef
##mms
##ilx
##aws
##vqd
##hhc
##efn
##lhc
##bcr
##wvv
##dfs
##xpw
##wph
##dik
##tsi
##kxg
##evw
6fv
##cfr
##smh
##pxm
##xeq
##vhe
##ice
6sp
##haw
##xid
##arf
##fsm
##itt
##lst
##xel
##fhf
##cnf
##dwx
##dhr
##dai
##hta
##shq
##eac
##wxt
##mcv
##xsg
##eyh
##cir
##yxp
##ndd
##gdx
##vie
##xqn
##iaf
##rtg
##elc
##fkp
##alg
##ttf
##apd
##hli
##xrk
##knl
##qgm
##tqi
##rxv
##rtu
##vwm
##gss
##aph
##tvi
##mid
##eki
##xne
##qrk
##kdt
##cks
##tcy
##nha
##vtm
##sfc
6fe
##fkm
##ftg
##man
##vtp
##dyt
##edg
##icx
##ftf
##sgl
##thh
##mld
##pvc
##grh
##wyd
6ie
##wsl
##nsh
##pkf
##gvg
##dhe
##ysy
##fym
6iv
##vni
##syt
##mqr
##mqp
##twl
##cqi
##dgn
##hep
##iew
##vwi
##xka
##eks
6ll
##nnl
6hv
##dqi
##apk
##rkp
##myv
##xnf
##nyg
6rl
6nr
##skt
##htf
##lql
##qpk
##tgn
##syf
##sns
##siy
##gqi
##hrh
##kal
##kas
##ftw
##pek
##tce
##ypr
##llc
##rfr
##gyh
##yis
##dhl
##nyi
##etg
##img
##spw
##fee
##myn
##akt
##ame
##iny
##qsm
##fsq
##tte
##gfp
##dwi
##xet
##xyg
##men
##dkw
##iyn
##gge
##nmd
##xkw
##xdp
##did
##ivx
##vyg
##xrm
##txc
##cee
6sy
##iaa
##lvc
##hfc
##amp
##gdw
##wge
##qqx
##gvi
##wwl
##xhw
##ryv
##cad
##evi
##iag
##cpq
##tkh
##wax
##xch
##xdl
##ica
##peb
##ihw
##ytk
##hww
##lkd
##ckm
##anh
##vls
##hsi
6tp
##hhx
##amy
##lsm
##tmc
##qcs
6st
##awe
##vty
##nrp
##dcx
##cgc
6dv
##nve
##vaw
##lnv
##xqp
##vkh
##ipq
##npq
##sqz
##rkg
##hap
##khn
##slx
##yrn
##spy
##eyr
##eei
##dmq
##sup
##pvk
6tt
##vyc
##tqk
##sxa
##vvw
##iml
##vcx
##xaa
##kle
##hvx
##lgq
##svf
##tvd
##qci
##sgc
##dse
##tlw
##qll
##dtx
##qie
##aed
##xlc
6fx
##xrx
##asy
##wee
##wta
##wsa
##tsy
##pvl
##qey
##hqi
##fmd
##nny
##yxs
##gnn
##pdp
##kdc
##dpw
##ghy
##axp
##yrx
##emi
##ivw
##kce
##dml
##hif
##cst
##tmv
##xde
##ewm
##eey
##ver
##rnk
##ity
##gle
66y
##tlx
##rkl
##fpe
6an
##gfv
##lsq
##vdd
##qpr
##krw
##xzi
##dea
##grb
##eky
##mlk
##elk
##vim
##klf
##ayy
##cmv
##vey
##sva
##dae
##xft
##zik
##alp
##diy
##eyx
##hph
6ch
##rkq
##xct
##kfr
##rik
##thk
##gin
##xyi
##vkg
##tee
##rrs
##pkp
##xkd
##sln
##pam
##hfn
##adi
##cvw
##pyp
##shn
6dd
##khd
##qgn
##itv
##vam
##knd
##qre
##aah
##ass
##wih
##vvm
##qxq
##qam
6qq
##qai
##dpr
##rfk
6dr
##mrp
##vny
##iyp
##act
##gec
##elx
##kva
##aml
##wlq
##vks
##wiw
##mxc
##giy
##afm
##qdf
##amh
##ygm
##gqh
##lqd
##glx
##xql
##vsg
##emw
##zix
##dne
##pcf
##lyl
##qxp
##esp
##cke
##sdn
##xrc
##wra
##nhm
##ryi
##alr
##sgs
##tcn
##pdc
##gws
6ld
##hty
##nqv
##kca
##alt
##nic
##dyv
##hvy
##rxr
##eka
6wf
##adw
##stp
##ymn
##mks
##qfh
##qhd
##cmm
##etq
##qea
6kq
##mky
##dqf
##pvh
##pql
##qfg
##fxn
##pfa
##neh
##ygl
##med
##lfi
##mag
##cnl
##syh
##xvt
##gir
##awa
##dch
##sai
##cae
##mif
##law
##ffi
##hak
##qdv
##fcp
##dwc
##gnd
##xhm
##kqv
6hc
##rsq
##tfq
##dys
##fpc
##gay
##rgv
##aey
##nfm
##mcw
##csf
##lhd
##fxl
##dxa
##acy
##fsw
##gnf
##vcs
##gef
##pkw
##hmv
##mwr
##htm
##mqy
##ynp
##crw
##wrf
##ywh
##war
##gdk
##yne
##qvv
##vwr
##tnv
6xi
##fbc
##spt
##msk
##fgm
##cai
##lea
##xvd
##nln
##txr
##mhy
##xva
##evn
##pmi
##qle
##plg
##cfg
##sml
##fwm
##fve
##mii
##fnd
##sae
##arn
##vrv
##nrx
##nra
##mga
##wtw
##exf
##krv
##kdf
##pnw
##pdw
##sar
##wdh
##wdv
##ycw
##kvt
##fxd
##igl
##hxw
##sem
##ryf
##rgf
##icy
##kan
##apy
##qka
##yfg
##ami
##cdy
##hgr
##vig
##hts
##xpf
##nki
##axy
##ies
##kmi
##ikr
##egr
##ktg
##dxs
##mfd
##axa
##tym
##npf
##kqs
6af
##gpp
##qlp
6tv
##nrw
##xdw
##itg
##afi
##plt
##fmk
##txn
##qxe
##lch
##cgv
##vdk
##gqs
##tim
##mll
##sgp
##rxp
##rwn
##ycp
##fli
##pcx
##yqq
##vvp
##gsh
##wpc
##lpp
##exg
##cxd
##mtl
##gaw
##ytc
##hkp
##phf
##xmk
##gik
##gwv
##xkl
##yde
##aic
6fw
##eqa
##alk
##ekv
##tvq
##may
##alq
##iri
##gff
##rfd
##eqi
##nac
##lfw
##kyy
##mxf
##gcx
##enp
##kgk
##dfy
##yqe
##gys
6rk
##ldr
##qdm
6vl
##gqg
##ckc
##mfx
##phv
##ygv
##yyr
##ysi
##sfy
6nd
##elw
##thg
##yqn
##pvf
##epv
##svw
##arm
##rkv
##qpn
##deq
##wvy
##ntr
##yxq
##vtn
##nnd
##asf
##qxl
##dpc
##yas
##sad
6fh
##lrq
##pcq
##pwv
##vhv
##wxx
6as
##aln
##lkg
##sxw
##mad
##tkf
6qn
##rat
6gd
##gde
##iwl
##cbx
##lgk
##ccd
##aex
##chq
##nhe
##gbi
##nnf
##acm
##sil
##drh
6nc
##lvk
##kav
##ndk
##bvk
##kyd
##nei
##skf
##wmv
##nqw
##mww
##qpp
##evs
##rlg
##nth
##cls
##dcs
##mkn
##nql
##csp
##cey
##rch
##gzi
##dyy
##qki
##wqp
##nkt
##nfd
##iyw
##dmr
##eyd
##mku
##pky
##kfe
##qrh
##rxn
##yce
##msl
##dps
##myx
##aep
##eeh
##xkt
##mav
##wgc
##xsy
##ltm
##chw
##sin
##cld
6ha
##lqs
##qtn
##kgy
##yqv
##nvc
6ai
##elp
##tcf
##tpc
##wve
##clm
##iqk
##qwm
##ttm
##chp
##sal
##qad
##irm
##lwm
##wwa
##gew
##drf
##dls
##qpm
##ekl
6pt
##gpx
##yme
##dxx
##rgm
##qlk
##miq
##rhp
##rks
##yfr
##atx
##www
##wtv
##iha
##rkd
##fxf
6wh
##mea
##prm
##ehg
##vcp
##kfi
##snm
##kgp
##vdv
##pqs
##kcc
##lla
##efy
##ggm
##fkn
##hls
##ftc
##ggw
##dim
##pyw
##xvr
##wnx
##xxi
##rac
##scp
##cfp
##ren
##wff
##lth
##wln
##mmi
##twq
##vna
##qmw
##gpg
##eli
##ryq
##lei
##crg
##gnr
##qgy
##qzq
##yxw
##xit
##fik
##rth
##cqr
##kwi
##rqq
##ecv
##fww
##pfk
##ypp
##tar
##mig
##qra
##twf
##akp
##ysf
##dgr
##sap
##lpq
##mgd
##nyk
##wyf
##hsv
##awi
##fye
##nce
##wiq
##nte
##fdm
##vhn
##hnv
##yyd
##lyg
##vgd
##sps
##xrq
##cce
##yhy
##riv
##epc
##ipt
6ck
6pd
##pfq
##lrx
##rmt
##vxw
##cky
##lxi
##ncr
##ycy
##rxg
##cxf
##lkf
6mg
##pmv
##lir
##vga
##hfe
##dfw
##sgt
##hfl
##pqv
##kvn
##swc
##mgr
66q
##wwx
##pkq
##qin
##qpv
##ige
##mng
##nmq
##qyh
##ffv
##ppg
##hgc
6rs
##wad
##elq
##gdc
##vdw
##dqs
##mya
##fey
##wec
##pdv
##elg
##nhx
##tsm
##vnk
##tkc
##yct
##agg
##ctw
##hxp
##kcs
##wgk
##ixl
##mrv
##sfk
##cgg
##iwm
##nwl
##kun
##vdc
##nxt
##wsv
##tpv
##rmr
##vep
##hsd
##pyk
##tax
##pqx
##eia
##lsg
##fii
##fwy
##wew
##eld
##skc
##dyn
##rsm
##iay
##sdh
##yyc
##ail
##mdt
##gcw
##imn
##esg
##nwr
##rsa
##klq
##rer
##wnr
##pis
##wkr
##xfv
##cel
##lwq
##hfk
##ifp
##dqe
##prp
##qdc
##nay
##dpd
##ylq
##mnf
##rny
##ksa
##nmk
##gfq
##pyi
##elf
##iiv
##rva
##kfy
##sdp
##lix
##yee
##rmd
6gc
##wxw
##wyi
##sqa
6ti
##awh
##agu
##lxd
##qqw
##kwe
##xlf
##wyl
##egp
##kfl
##xya
##edm
##tik
##wrr
666
##maf
##gmr
##cva
##whn
##wpp
##sgm
##saa
##shr
##new
##ahe
##wkf
##avs
##adr
##ktk
##fph
##rdn
##qtm
##vff
##xeh
##fwg
##lmi
##fwc
##eps
##ksg
6ym
##tpr
##mhl
##fhm
##saw
##hrr
##gcd
##sha
##vsa
##hlm
##ini
##qla
##dnk
##pct
##igb
##vmv
##lkr
##lsd
##nyn
##qgl
##luh
##can
##vwk
##wsr
##ffk
##xic
##die
##akh
6fs
##pgw
##kxs
66i
##ymt
##lkc
##tli
##flq
##nmh
##syn
##fmy
##nqc
##mqw
##xbl
##gmp
##lta
##qcy
##ecq
##wnt
##pwn
##mmt
6lx
##txg
##had
##dyr
##rcn
##lgc
##yqd
##gqt
##cqn
##lcm
##yws
##kfh
##wvk
##gym
##ndr
6fl
##yen
##pck
##kwt
##pcm
##ycm
##nmy
##wmc
##tkm
##phm
##gad
##hle
##pec
##fin
##sxq
##ecr
##dif
##qky
##ern
##kyn
##ixq
##diw
##per
##ppv
##waw
##geq
##lnl
66d
##svv
##rph
6hw
##pfd
##ixd
6vq
##dhi
6rp
##fdp
##shd
##slg
##ywp
##cci
##fef
##ptr
##erd
##qhx
##env
##gpl
66l
##lqk
##pvw
##igc
##pgx
##rns
##tca
##gpy
##aye
##xki
##kym
##way
##nfw
##tgc
6ap
##vlh
##yfl
##hti
##ccq
##ytm
##gfm
##fes
##vkr
##xqg
6xr
##xye
##amc
##vqh
##tpy
##yls
##ytl
##gdt
##yxh
##mpn
##kpi
##gyl
##myt
##ein
##ivm
##dat
##yrr
##tph
##svg
##wds
##iyx
##ahf
##gvf
6fc
##dar
##ncp
##vpi
##eap
##krf
##ffn
##gxc
##nqy
##snt
##wsh
##ahx
##div
##tfh
##nec
##wgf
##cyd
##tdh
##ehe
##wfn
##ppq
##vwe
##nnr
##lyr
##mry
##smp
##pch
##ivv
##pxn
##pvx
##cwe
##wwf
##dwf
##pay
##shm
##mbl
##svi
##tyv
##lit
##qtk
##icr
##ntp
##lax
##glq
##las
##nqk
##hnw
##thn
##ntc
##qxw
##gex
##han
##sww
##vki
##npn
##idh
6xs
##rsh
##lbl
##lls
##kdh
##gcf
##day
##hwd
##lgs
##eah
##iyq
##yna
##gfk
##wcs
##eep
##acq
##vmk
##gna
##cmg
##iwf
##pmd
##frl
##wqd
##hqx
##irk
##atw
##hek
##hdw
##qcw
##cth
##fyw
##sxm
##lhe
##cfs
##eit
##tgm
##mix
##xgq
##tnd
##kly
##iek
##gmy
##hwg
##cdf
##cti
##pyn
##csx
##nke
##qgw
##dyw
##ndl
##mwp
##fzm
##pim
##ldm
##lsp
##khy
##wlh
##sgr
##kht
##cgs
##fqa
##nas
##ffm
##rew
##gee
##vpn
##avv
##xln
##hrt
##ddv
##hxt
6wd
6ec
##ath
##any
##ryh
##rpt
##ali
##glp
##gwp
##mis
##qnd
##qip
6sl
##nhs
##qfv
##kqf
##xyx
##ecw
##gwy
##fst
##xxt
##tfs
##yqf
##hff
6vt
##ecg
##vwt
##fvr
##vgr
##ivc
##mdw
##fgv
##wea
##pdi
##yvm
##hng
##fwr
##srk
6qm
##qyy
##cek
##pyx
##cfv
##rss
##sts
6it
##tqn
##cxa
##xmp
6ww
##hcm
##yyx
##xin
##ark
##hsr
##lmy
##dnw
##xdn
##ivn
##etc
##hax
##fkt
##elh
##hex
##htc
##egg
##nwp
##hlw
##sgk
##qgk
##rpl
##sfs
##mwn
##yxr
##dya
##tve
##vhl
##twn
##gis
##lsf
##mwa
##xrs
##rxw
##rcg
##ras
##dxm
##klc
##get
##tdc
##xcx
##dre
##srv
##pmn
##efq
##rev
##kgi
##cgy
##xvh
##xmr
##shp
##tsl
##xhv
##yqg
##hye
##tng
##zme
##fdk
##tmw
##lks
##ypv
##dan
##dhd
##yti
##fnh
##cmf
##pxt
##cnd
##tix
##yad
##pmx
6im
6tw
##ril
##hvp
##lkq
6ns
##nvp
##flc
##ykp
##gwm
##riw
##akv
##lyh
##xtn
##nwc
##svd
##ygq
##ckr
##fsl
##vsp
##qcp
##ihd
##lcv
##vqy
##hpt
##xwt
##xal
##nrc
6ra
##ymk
##tdl
##kmh
##stf
##dxc
##slu
##dih
##ilp
##vbt
##mgl
##syi
##dnf
6lr
##sxk
##xhs
##isw
##cfe
##wtq
##egn
##xpk
##pef
##gqp
##rxq
##fbg
##ngk
##mct
##xfm
##egf
##qaf
##fmh
##vfg
##fqd
##amr
##gly
##stm
##nta
##qaq
##lev
##ekg
##fcd
##clv
##lca
##ier
##tyg
##kiw
##ewa
##pig
##lxg
##ttc
##mlx
##nyc
##aff
##tii
##plc
##whm
##naa
##riy
##dcq
##qfy
##ngh
##pys
##kvy
##ecm
##dri
##kml
##iir
##xsf
##dwn
##evx
##rvp
##ktl
##ctl
##nne
##hhp
##dhm
##syk
##dfi
##rwr
##tdx
##eam
##hvm
##hrg
##aqw
##snq
##hev
##qfc
##dcc
##blp
##isp
##kdg
##kgl
##fvx
##irv
##pte
##vqv
##mhn
##nes
##sfv
##ikk
##qvi
##lim
##hlg
##hyv
##tck
##css
##ena
##mvp
##yef
6ev
##ecx
##ctr
##rii
##fnv
##xvf
##aew
##ylw
##lrv
##vaa
##tdp
##vkw
##wcy
6pr
##vra
##aht
##ced
##eiw
6gs
6cp
##agn
##dei
##qid
##aps
##kdk
##aan
##vec
##ivp
##gmw
##yxg
##wfs
##vsf
##dfh
##imy
##cdn
##tne
##cyn
##dlv
##fps
##svq
##nma
##qnk
##drs
##cmr
##wwm
##trt
##hyw
##yep
##xnn
##sqw
##rgh
##rah
##wsm
##xrg
6ma
##khr
##cil
##blx
##epp
##faa
6nn
##dkq
##wda
##art
##yxk
##tfi
##hwf
##kfw
##xxs
##qry
##qga
##meq
##phr
##mpx
##nsc
##wxc
##pnk
##vvd
##qyg
##vge
##pdr
##eyp
##trn
##aqa
##ycv
##fgk
##fyy
##eyq
##fpi
##ipc
##xlr
##hwp
##lce
##hcp
##nrf
##rqr
##evc
##ifh
##gvy
##mac
##tvr
##epx
##nwy
##cwf
##ait
##ikv
6ft
##vxh
##mce
##sxs
##xdr
##cta
##cdi
##epg
##mfl
##nae
##mxh
##wcx
##xek
6de
##hqd
##rnr
##lug
##awy
##hvf
##gxw
##gmv
##dci
##nty
##ydt
##rtx
##far
##xae
##tel
##pcc
##eax
##knk
##aig
##mhk
##wic
##wci
##drg
##xkn
##cpr
##iff
##pal
##txx
##rga
##ekf
6fq
##ghl
6dk
##ifm
##ghq
##hyy
##hqh
##xds
##npv
6ds
##epw
##itf
##gli
##drt
##hwc
##itk
##lli
##fta
##ftr
##wnc
##dqn
##swg
##wkn
##ppx
##ext
##cgl
##apm
##fvt
##rty
##tde
##crl
##pqi
##tgp
##wye
##axr
##pxx
##pww
##krp
##tgx
##iph
##frx
##xdg
##mqh
##vas
##xsd
##afg
##cig
##nhd
##mkv
##mgp
##qrp
##hey
##qvl
##ggn
##aif
##ewk
##fss
##qst
##lwa
##vay
##mrr
##hyi
##xwn
##xle
##dms
##qkm
##cma
##yvp
##trx
##kcp
##hxf
##pdl
##vfr
##fih
##dql
##dkg
##gks
##qcq
##pvt
##xir
##atq
##dni
##nlx
##dmp
##qyc
##nvt
##wsw
##vxp
##sef
##yal
##dsv
##kwg
6if
##ncs
##mpd
##axt
##iiq
##hcf
##pld
##fvf
##lqa
##qvx
##gpd
##iic
##xvl
##mkm
##cqx
##ace
##dip
##mwh
##ktt
##cmd
##nid
##rtw
##xts
##yqc
##ert
##qgv
##xpc
##mai
##gcs
##xxm
##ylc
##iws
##dhg
##pqr
##ghi
##pdt
##mlc
##akw
##wsg
##gxy
##els
##ewc
##clg
##kxx
##igi
##qen
##lvd
##aad
##gua
##scl
##hed
##lga
##rpr
##mfy
##dvd
##yph
##ynd
##miv
6ls
##cfx
##rek
##rar
##yhk
##pqc
##cya
##qep
##tqd
##fbx
##fcm
##hqq
##lgi
##cal
##akl
##mvt
##ycd
##trl
##qys
##vvy
##cip
##aam
##qsi
##ayc
##kkp
##thf
##iqp
##mka
##pkv
6mk
6rv
##qlt
##ehw
##wrv
##knv
##ete
##wil
##kmt
##all
##xyh
##iax
##nvg
##lnx
##ilr
##qyx
##edh
##tdq
##hte
##yqx
##gvx
##cyx
##rdk
##aev
##ech
##dns
##gau
##nsf
##qsw
##hrm
##dxw
##awl
##phd
##qpl
##gsa
##ves
##crn
##rpp
##tcv
##lid
##kli
##kne
##ywk
##vem
##xrp
##nxy
##dka
##vft
##hcn
##hxc
##kxf
##lig
##hag
##hfy
##ide
6yd
66f
##fdy
##ctu
##hwi
##rsi
##cac
##fxt
##crs
6cv
##eln
##mml
##ccs
6ly
##ygg
##flp
##lbe
6km
##tnt
##ths
##yyy
##wvp
##ykc
##ksv
##stw
##dkv
##cng
##awm
##gmi
##wer
##ith
##tnm
##hlv
##cvx
##isn
##xil
##kwr
##wxs
##cmq
##xnq
##sbl
##rms
##iwe
##wdm
##whc
##ard
##afx
##fiw
##shf
##cgh
##xpx
##qli
##ipk
##xqw
##hsa
##kcd
##qww
##nmg
##xmy
##akc
##mtg
##kkc
##fwx
##pgn
##iwq
##apl
##cnn
##pel
##hmq
##nqr
##cpg
##xgl
##skd
##mdk
##hhv
##ieq
##mpp
##emf
##xqh
##yyw
##taa
##dtr
##nir
##gtq
##ppe
6dc
##mxd
##ahp
##enk
##cfq
##tlf
##kpn
##kfg
##lec
##kiv
##axe
##yst
##qsy
##cra
##igk
##fwh
##snd
##igw
##aag
##fml
##gva
##kti
##hmh
##tgt
##dnc
##qnt
##yvn
##vea
##yiq
##fsi
##ehk
##ykd
##eag
##imw
##grf
##yfp
##wfq
##qwy
##dqc
##tmk
##fvm
##rpg
##nsm
##vgi
##qrd
##xfq
##yms
##hdi
##nns
##drr
##cdk
##qil
##ney
##psx
##ple
##eqs
##hcw
##mhf
##ece
##eiy
##tdm
##exs
6gf
##kiy
##scd
##spg
##dxk
##hpk
##ygh
##xgs
##rqk
##pry
##mcr
##pnq
##dpm
##ise
##lhg
##tfe
##qdw
##deh
##lph
##sdf
##sqc
##mlq
##tkp
##rqf
##mwl
##kad
##xlq
##fek
##xsk
##aqi
##efm
##qqd
##wya
##avm
##ryw
##lin
##nlf
##prr
##gxa
6gw
##hnc
6gi
##ldd
##his
##eyv
##xda
##kmn
##npy
##ana
##wen
##har
##kxd
66t
6dy
##xxa
##dks
##nyt
##swx
##svm
##fkk
##sqd
##vdi
##sxt
##nfh
##sxi
##qii
##ayr
##ika
##aqr
##vva
##llv
##hns
##mwm
##hhl
##dlm
##dfe
##wcm
6nv
6iy
##qce
##wtl
##pnn
##mnp
##cpt
##tqy
##wqn
##rlf
##clf
##hwx
##amg
##rwx
##tcs
##nvv
##vkk
6ag
##sii
##mah
##lcx
##qlr
##emc
##win
##smq
##eya
##pls
##vqr
##kpa
##pyl
##lpv
##fya
##xsm
6fm
##vyx
##fne
##vvi
##cda
##afn
##yin
6cy
##wtt
##ipv
##sdx
##dra
##fam
##xat
##apt
##ckl
##cia
##hkq
##vid
##sir
##dnr
##ayh
##eqx
##ylg
##xvi
##ftq
##qph
##ahn
6qi
##cqs
##pdq
##lpm
##hfs
##rpk
##wlk
##anc
##ynf
##pfw
##nia
##pmk
##fvl
##esy
##qhl
##ita
##ihh
##gre
##gqm
##qgx
##zgf
##khc
##lgd
##enn
##tpk
##cds
##dkh
##sna
##lat
##xfr
##kxk
##nri
##mxe
6kx
##cmn
##imi
##kke
##ayf
##nnn
##mtd
##sql
##apv
##rcw
##ici
##pxe
##geh
##cfn
##mph
##twa
##sat
##rsk
##rcy
##wcc
##xqi
##fxh
##vnl
##gag
##qts
##wfv
##fce
##avk
##lgx
##nil
6mt
##xaw
##vcr
##hlr
##pem
##vfi
##pyt
##pna
##rax
##kac
##xih
##qxf
##xck
##dsl
##iik
##ava
##mep
##yae
##epk
##lap
##alx
##rrt
##cyk
##aiv
##xpm
##xim
##ine
##htt
##kfn
##haa
##pxf
##hef
##gac
##qhc
##fpg
##xrw
##awg
##ivh
##cgk
##cqf
##daa
##nee
##dws
##sax
6xp
##fsa
##hqm
##pwp
##wym
##vrd
##say
##xfs
##anp
6qe
##lwp
##kmd
##tqa
##afw
##lpr
##ddr
##leq
##rnp
##xmv
##rqw
##iqg
##lyc
##tsg
##vkf
##cdr
6kr
##kwh
##hkf
##avx
##sdq
##gdl
##snk
##eql
##mee
##ima
##yxt
##pmr
##qha
##vpv
##lwy
##ndh
##wdg
##fls
##mqt
##ddw
##iec
6mp
##gqv
##txe
6ms
##avg
##vmy
##wxe
##qkf
##hyt
##rtv
##yrf
##qeh
##yta
##wlr
##qsn
##ywr
##mmv
##tfc
6sm
##ppn
##qqf
##wfl
##cyy
##lae
##mdg
##acw
6sk
##ifx
##htx
##ehf
##gwt
##dfx
##iaq
##xcq
6mr
##sic
##hrd
##xhx
##nvf
##iwn
##nwt
##tcm
##hvb
##agf
##fnm
##llh
##mrk
##acl
##nfe
##tif
##plm
##ilq
##spq
##vtt
##gpm
##rpa
##gfh
##iia
##iql
6ht
##ixw
##txs
##mdn
##nxh
##ldl
##pvd
##wlm
##vsm
##inv
##kge
##cmt
##fkx
##qmd
##yps
##mcm
##dym
##pks
##nvq
##yla
##iqd
6cn
##cch
##lyk
##xtx
##hpy
##gpq
##cqh
##cqw
##qat
##mts
##ipi
##kyf
##knq
##nrv
##egi
##snw
##lkk
##sta
##rsf
##rfm
##enh
##ldv
##mpc
##dgx
##mem
##gxd
##geg
##wvx
##qrl
##sfh
##mgq
##hat
##red
##vxr
##qew
6vv
##xta
##lkm
##ytq
##stl
##nxe
##yaw
##vqa
##emq
##tiy
##lnk
##pnp
##aug
##nyq
##qpt
##ede
##vib
##stg
##krt
##fnq
##kxn
##wmx
##igf
##gxk
##xnh
##esb
##npr
6pp
##cgi
##fvu
##cla
##yxe
##ell
##xwa
##iih
##hil
##mcf
##srh
##smk
##ses
6ey
##ilf
##gea
##vkz
##wfg
##fra
6yy
##max
##grp
##rlu
##ppp
##kcr
##wit
##qht
##tnp
##mra
##lpy
##wcn
##vhr
6aw
##gxi
##aaw
6sq
##cim
##gmq
##fvw
##ckd
##qik
##kpe
##gvv
##hxe
##qnm
##qln
##tfx
##ctx
##drl
##idt
##psw
##gyw
##lfn
##chf
##shh
##cei
##qxk
6is
##dkx
##ipy
##tpg
##qxg
##xry
##ghs
##rgi
6ia
##nhg
##qvf
##enm
##fyp
##hmy
##cpi
##vqe
##ktf
##swi
##fyn
##mhs
##mkp
##mhx
##hct
##aqg
##nyr
##xyf
##ltt
##raw
##qcn
##rid
##kgm
##lcp
6rq
##kxq
##gkr
##eff
##pfh
##tmr
##avn
##ynh
##ngf
##ald
##kxl
##car
##ssm
##msv
##dtv
##pmp
##snr
##dvy
##dmh
##vct
##ivt
##khp
##abl
##fqy
##taw
##wtc
##nav
##iqw
##lif
##yma
##par
##ade
##ife
##dqq
##cli
##fdi
##wre
##dwh
##wie
##xhd
##rea
##qqn
##lwe
##zhl
##exx
##dst
##nvi
##ffs
##ted
##msi
##exc
##gxs
##qvd
##wid
##nim
##hen
##tqf
##ing
##weg
##nik
##fav
##edy
##efw
##qkq
6ke
##ilg
6fi
##rdm
##arp
##tyq
##skh
##ykq
##nhi
##xlk
##sxv
##yge
##vhi
##yca
##xyy
##mih
##che
##qxh
##ekq
##aka
##pqk
6lw
##inn
##wrm
##mds
##fva
##vsr
##hdy
##ewr
##tpx
##xkk
##gqw
##rcs
##fmx
##tyf
##dpp
##wfi
##ssv
##trq
##qak
##kap
##gnk
##eme
##qih
##hqv
##rhx
##lvr
##ieh
6si
##fvs
##vfb
##are
##shi
##ppc
##ppt
##hrw
##iyf
##vly
##via
##kew
##vnw
##aec
##pdk
##ddp
##ikt
6xn
##ayg
##kgd
##vqg
##htw
##wsp
##vch
##kfv
##hgw
##nlt
##sld
##pgh
##pkh
##qmn
##xti
##twx
##mth
##tgw
##fmc
##idm
##rei
##mvg
##avy
##lxl
##rme
##ele
##tgs
##mgv
##xmx
##mmc
##vyw
##gka
##qdq
##sqr
##ack
##kry
##xif
##qrr
6gt
##srm
##vth
##vtw
##ihm
##nkf
##igr
##pnl
##iig
6aq
6rw
##afy
##xfd
##xkf
##fqf
##qsc
##aqc
##vtx
##waf
##wva
##rzg
##xtq
##skg
##swk
##cfc
##xas
##exy
##mxi
##ptt
##ats
##nkg
##hrq
##idc
##emx
##xns
##dga
##viw
##edn
##mny
##xmf
##aly
##ral
##fiy
##psr
##raq
##wct
##cwn
##hia
##cms
##lis
##kpx
##npw
##aae
##gxm
##sxr
##phq
##hht
##sde
##nlr
##xkh
##ety
##lvw
##dlq
##egq
##nmf
##lny
##sym
##hzc
##ded
##ykf
##wxa
##wlg
##uin
##sik
##fhe
##wqe
##hwl
##egc
##fgp
##wvm
##ycr
##vxk
##rxe
##lia
##lki
##ear
##vrm
##nlc
##kim
##gxl
##xma
##rpx
##cfd
##pif
##fxm
##kea
##dyi
##cnk
##efv
##wpm
##yiy
##dah
##edw
##tth
##dhp
##wpa
##dpv
##wif
##nhn
##rhl
##gsn
##akm
##qkn
##eqt
##asx
##see
##sfd
##hsk
##fxg
##cnc
##dqt
##cxi
##gyr
##khs
##vfk
##vai
##wtf
##cmi
##lse
##fxe
##ysr
6dm
##klx
##eni
##dvp
##cyc
##ixn
##wal
##vsq
##gki
##qqk
##ptf
##eai
##wry
##afd
##rhv
6pk
##qca
##txh
##liv
##zqx
##gln
##rgr
##edr
##gyk
##vfh
##yik
##ktx
##yil
##kha
##ect
##fwl
##whx
##frh
##lve
##slf
##gld
##gat
##ste
##ncf
##hwe
##glg
##sei
##ile
##rmi
##scr
##rrn
##wvf
##rqp
##pai
##kaa
##pkn
##vwn
##ely
##pfe
##pcy
##hnx
6ce
##exk
##gts
##uqf
##nks
##ydi
##msr
##htl
6np
##fxy
##hcd
##cea
##nrs
##pme
##gkf
##kgt
##ptk
##pdm
##dkp
##yai
##hlt
##wls
##clt
##ctq
##tyi
##gkl
##vsn
##gwx
##ypx
##lpi
##xnl
##tep
##eht
##nmw
##lsn
##avi
##egm
##qpq
##lmc
##iqy
##akn
##ggx
##hay
##fpr
##cgf
##nqx
##dib
##diq
##gnc
##yix
##rlq
##snv
6xg
##ewp
##mlf
##qkl
##kvd
##flw
##cqp
##lbr
##ixk
##tqt
##yrl
##ehn
##qhg
##ite
##xhp
##gxx
##vpg
##vih
##twi
##pmy
##wst
##dee
##lmf
##npx
##ntd
##hvi
##ixt
##xpi
##cap
##mef
##rdd
##ypn
6rc
##cwq
##pqp
##nep
##qrt
##yhp
##ksm
##mfn
##heh
##dkc
##lye
##hvg
##fpf
6pe
##qwh
##ssk
##sev
##xgh
##fyt
##qfk
##wlf
##hrn
##pwr
##sda
##yyl
##ave
6gm
##dty
##ygi
##hpm
##hld
##aee
##ckh
##iyk
##gmd
##tkl
##pia
##nlg
##nsk
##vgw
##pix
##hdm
##hdn
##fkw
##lxp
##yek
##ymr
##mmx
##kgr
##txp
##ddg
##ihl
##wft
##rvl
##kre
##lfl
##yff
##rhf
##ccp
##nmi
##lxw
##yfc
##qlq
##wmt
##ydk
##qax
##ylt
##ehs
##gpe
##epd
##kar
##dhc
##vgn
##ysg
##vfw
##smw
##vhs
6nm
##pmw
##drm
##ngr
##ivf
##hlx
##qwl
##vad
##ilt
##yhw
##mpk
##acc
##mdx
##clx
##gkw
6ah
##gif
##qsh
##krm
##ppk
##gkq
##kny
##nrr
##lym
6id
##aha
##dtw
##gtx
##kqx
##evl
##kqd
##vms
##zek
##ffw
##idv
##rqi
##nvn
##eyl
##frf
##nvl
##vkm
##vpw
##kdn
##klw
##ekr
##kps
##yny
##bng
##mdf
##fth
##xre
##tks
##yym
##dqm
##txl
##asc
##swp
##nrt
##fsk
##hdr
##psv
##irs
##hhk
##xmm
##mpy
##pvv
##cav
##yfn
##tfd
##rmq
##dwk
##hck
##aga
##dte
##piy
##imk
##nwx
##qdl
##nsd
##dfa
##fte
6td
##hmc
##wpk
##csn
6mw
##fys
##xsp
##kyp
##xxh
##gcc
##pep
##erf
##slp
##pgf
##epl
##ydh
##pdx
##sdk
##mxp
##lxr
##tem
##fre
##gky
##iqs
##ifa
##ync
##vac
##ifi
##xrh
##irx
##pqd
##tvy
##evr
##fdc
##vwl
##dsa
##lvv
##eat
##etd
##edf
##xla
##drk
##tyc
##nti
##dap
##ylf
##ann
##sip
##hys
66e
##sxh
##qrq
##ndf
##syw
##mkk
##xvm
##aqp
##fhy
##eqh
##gdy
##hyf
##shc
##ira
##lpd
##ahl
6mf
6xe
##xwe
##ike
##xpt
##hmr
##vwg
##llg
##shs
##lcy
##tyn
##eck
##fgr
##kfa
##hfa
##nwf
6mn
##avp
##nmn
##npp
##fxa
##akq
##kcl
##idk
##pvm
##gcg
##ive
##nrh
##vpl
##nch
##hig
##qfe
##rxc
##wnd
##qsd
##rqe
##cry
##psy
##svx
##qqm
##ypw
##aiy
##vta
##gdm
##fak
##wmk
##kpt
##imc
##sed
##pyq
##axg
##qwk
##dpt
##prx
6nq
##dkm
##atc
##exm
##ugs
##snn
##gsc
6dh
##kqe
##asg
##efa
##dsq
##rtf
##mkf
##dgf
##smi
##cgx
##kch
##nqm
##lyx
##ryt
##ych
##hyr
##tnn
##mdp
##grg
##dna
##vxc
##qgq
##mwd
##tiq
##faw
##dxn
##pvy
##dti
##iwg
##wwn
##fln
##rxa
##srs
##rlv
##mdq
##vgq
##dqy
##hqw
##kng
##fpt
##taq
##qdi
##wkm
##dly
##axn
##ktw
##qpg
##fhq
##hcc
##wqc
##qdg
##gkp
##ihq
##hgk
##xex
##qpa
##cif
6he
##dhh
##tpi
##mev
##kcg
##kde
##cvl
##mse
##qvp
##xym
##mkq
##wqr
##ter
##iem
##ndv
##aeq
##dfr
##nax
##kss
##pri
##mhr
##vcm
##lka
##ctt
##miy
##gaf
##ivl
##mgy
##kki
##icv
##wka
##ntv
##crx
##ggr
##sse
##lrg
##qch
##qiv
##apx
##cde
##hdv
##crp
##xtv
##nig
##reg
##rdi
##sew
##pin
##ayd
##hec
##sas
##clp
##amx
##blv
##xwd
##keh
##rma
##kkl
##hmt
##cxp
##vek
##fly
##cty
##rkx
##msh
##vrz
##exq
##mqk
##hxv
##xig
##mvk
##mvs
##dpe
##hkm
##ipm
##dek
##shw
6dq
##vri
##iwv
##xip
##ibl
##kwp
##rnc
##glm
##wed
##ala
6md
##rwa
##xxp
##hsc
##eng
##ddc
##wss
##qls
##wrw
##fpx
##nld
##tdf
##npa
##syq
##ske
##rqx
##wle
##nng
##sdr
##arx
##dam
##fsx
6nl
##sck
##xgy
##axk
##whd
##qvc
##swd
##prw
##ygy
##kyr
##vix
##vvs
##ssy
##gml
##yig
##eke
##gvk
##qne
##sdg
##ryl
##tyw
##nll
##ycs
##vwv
##rft
##kpq
##ddh
##qig
##qge
##ivk
##tpf
##mtv
##mgi
##gca
##ner
##pll
##dnm
##yrq
##myc
##hdg
##isd
##hre
##xrr
##fnp
##llf
##dgv
##vsv
##faq
##slc
##gei
##ldt
##rnw
##nva
##lgn
##ygd
##peg
##aab
##ngx
##wlx
##lws
##mdl
##lxa
##rda
##sht
##qfd
##het
6cf
##maa
##rie
##khw
##kfx
##efi
6rm
6lg
##vys
##aaa
##htv
##vfq
##pqq
##rnd
##pxw
##gtm
##spp
##rhm
##ygw
##aqt
##ihn
##khq
##pgc
##iyd
##scq
##xen
##hcs
##rri
##eew
##lvq
##nqi
##plr
##aay
##ecc
##eip
##ent
##vyh
##tma
##hpc
##yey
##adl
6pv
##qqq
##eaf
##hyl
##vvn
##rdv
##eek
##rll
##grl
##lsl
##cwx
##rlc
##cfk
##wly
##qal
##dvf
##tyt
##uta
6ak
##lwv
##vgt
##ggs
##pha
##rts
##wlc
##kes
##daw
##dxe
##vyn
##kay
##xtt
##mfa
##tiv
##ehy
##qmm
##qim
##wgm
6xm
##ncn
##qvq
##suq
##wqy
##age
##gqn
##crm
##mlm
##ivs
##nag
##rya
##des
##fdw
##hmd
##ywc
##tsw
##whr
##esw
##mfe
##gch
##txa
##tgg
##eav
##sgn
##dss
##esi
##vyi
6qa
##ned
##yvc
##hii
##kdi
##crd
##rgq
##yck
##lvl
##kty
##eri
##yfe
##qhh
##hae
##dhv
##gyq
##wqw
##ynw
##ihc
##rdr
##xlp
##xvn
##xra
##mdi
##aqx
##eyy
##mci
##ani
##fns
##ems
##tmd
##xdf
##vnd
##xdd
##qmq
##ikm
##hxh
##gcp
##fhc
##wwe
##cns
##dyk
##phk
##plv
##hsy
##yhx
##qng
##wdr
##vdm
##inc
##vqt
##xxe
##kwy
##pnh
##nxg
##rsc
##fmm
##mre
##krx
##hgp
##chn
##rsg
##xhe
##uat
##cxh
##akg
##xgc
##etf
##ffr
##rrg
##mvh
##ccm
##gwl
##skk
##ftx
##mgm
##cet
##yyi
##drq
##tyy
##spd
6gh
##kzl
##fdn
##ixx
##hxg
##nkd
6qs
##xmg
##qwa
##sxe
##sqv
##gpt
##ase
##dlx
##dlk
##vda
##int
##itl
##trh
##wna
##ild
##yaq
##pma
##qan
6my
##wgw
##ymv
##wef
##pms
##hxl
##rpy
##ttl
##vir
##hfw
##hkr
##xyk
##xvq
##xmc
##dwv
##mmm
##ffq
##ceh
##nxd
##mgf
##nvy
##hfm
##wvq
##qmx
##txq
##ffy
##rge
##yax
##rsw
##lkn
##xqr
##dia
##rmv
##srg
##gxt
66m
##fmp
##dac
##fea
##ckp
##wsd
##hny
##prq
6fd
##xiq
##rpe
##hlq
##wam
##ttp
##wdc
##qag
##rwi
##vmq
66x
##xse
##lms
6tx
##nxv
##vce
##ryg
6ky
6sf
##dxq
##krq
##cit
##iym
##lgt
##ayl
##kft
##rml
##ssl
##wvn
##fxw
##cwv
##bll
##fpn
##egt
##vss
##qyn
##mqv
##vde
##ahv
##lgf
##hes
##fdd
##tah
6le
##mrc
##enc
##atr
##uha
##lih
##xst
##dwl
##gxr
##rnv
##cqt
##vdf
66c
##ptx
##cge
##fgw
##skq
##xhc
##ndp
##ftv
6rr
##pty
##cer
##yli
##gic
##wma
##ikn
##gid
6wk
##kyl
##fkl
##csc
##sll
##hdt
##wrp
##dgc
##yqs
##ywf
6vc
##iwp
##eve
##gxe
##epi
##fgi
##qmk
##grd
##ysl
##slk
##fmi
##trc
##fsn
##xwv
##prh
##dqk
##qkk
##fqg
##rif
##wkk
##wnm
##aip
##xpd
##dnx
##wim
##ili
##kqk
##ihs
6xc
##wte
##fvh
6vr
##arh
##lal
##stq
##ycx
##vpd
##hvq
##xie
##lmv
##ipe
##kcy
##yie
##qhs
##qna
##ihf
##lrl
##xvw
##txd
##xwm
##fer
##lww
##yyq
##whk
##trz
##lrn
##xte
##mzi
##gpi
##ytv
##yva
##rve
##gql
##ski
##rnn
##rff
##ksc
##drc
##fkg
6am
##kai
##adt
##cvf
##sth
##pqw
##liq
##gsm
##sah
##hcl
##mkh
##gns
##teq
##fhh
##kmm
##vqk
##scc
##cdv
##rxh
##anl
##sbs
##dpa
##dcr
##srt
##ifc
##mpt
##pgm
##wvs
##ttn
##wqm
##fwd
##eex
##tqs
##ydq
##psn
##wki
##avw
##awd
##lsx
##txi
##mes
##xnp
##tmm
##qar
##tqw
##ttw
##rvd
##gma
##sea
##qrn
##ekt
##ntt
##veg
##xgn
##ncm
##msa
##ndt
##etr
##ire
##itm
##xci
##pfi
##scs
##gvm
##btt
##npe
##mnv
##hlp
##kyv
##its
##cqc
##rrw
##gct
##qyw
##agh
##xyw
##ynl
##xqa
##cvd
##teh
##npt
##att
##fyd
##lie
##cpn
##wvc
##wig
##tme
##ghg
##anq
##dwt
##kvr
##mhh
##ews
##kyq
##gmm
##lsw
##fdt
##frk
##nnx
##nvr
##xqq
##htg
##pqm
##mtk
##cxl
##yks
##twe
##dtc
##mrn
##hqt
##tae
##fkc
6ca
##yet
##nww
##qrf
##gih
##kex
##iki
##llk
##plw
##vhq
##tcl
##yem
##rwp
##efe
##epq
##cdx
##xxl
##rfl
##rem
##ssf
##rlh
##mlw
##pii
##qtv
##qwf
##lrc
##gpr
##lty
##mmn
##dck
##efk
##fyx
##hth
##rvc
##mvl
##acf
6lk
##emy
##flf
##hpv
##epy
##wsf
##cvk
##mtn
##rcq
##lvs
6li
6vm
##kir
##kxy
##pvr
##rzy
##wfx
##fan
##vqq
##cve
##edd
##yqm
##cyp
##rxl
##cin
##xcd
66p
##vgg
##cvv
##php
##mit
##asd
##yhc
##rcd
##ddn
##mmg
##ehi
##cix
##rtm
##maq
6aa
##dgt
##twc
##lya
##iyg
##cie
##tsk
##wyn
##etx
##hrs
##mtf
##awk
##mma
##xpe
##dxt
##qlh
##aty
##lyw
##rae
##ldf
##veq
##skl
##qkg
##csv
##crh
##xfg
##xpy
##sav
##kmg
##tqp
##yer
##cqa
##xqc
##ccc
##clr
##hsh
##ach
##wyt
##qcc
##dqh
##wtm
##ddd
##mfk
##ywg
##tfn
##lle
##tld
##piw
##hda
##rle
##dkt
##tia
##gpf
##feq
##cvt
##tas
##ipl
##ehh
##cfa
##gme
##evf
##qty
##tva
##kpy
##vel
##fnc
##kci
##hqk
##wrc
##qgr
##hqs
##kra
##sqy
##eqp
##wys
##xkv
##wnn
##llw
##tad
##lxs
##miw
##fsd
##kek
##plq
##kyw
##lrs
##gci
##dve
##amu
##rde
##ptn
##gwi
##dlc
##gdf
##rqy
##gfs
##ciq
##iqi
6ml
##gve
##vyf
##cew
6ep
##yfq
##yqk
##pln
##qvk
##rtr
##pxc
##yhl
6ee
##psg
##vet
##xca
##pre
##rhd
##ign
##txf
##nli
##qtp
##mwx
##hca
##ixa
##cik
##qta
##rvx
##kld
##lam
##hse
##akk
##vat
##iak
##fyh
##drw
##iwi
##wfd
##dvh
##mye
##yga
##myp
##vns
##iwx
##qdh
##ipa
##nyh
##kkn
##ppl
6dt
##spn
##gkk
##cfw
##dxh
##swr
##sdv
##ytr
##tyh
##sti
##dxd
##mff
##mcp
##vha
##igv
##vne
##qrs
##sra
##wrt
6ea
##wxn
##lrr
##cvc
##gha
##nre
##ffa
##xgi
##pyc
##eec
##mkc
##rlk
##gsv
##yxy
##lsc
##tds
##ads
##yvl
##dca
##spm
##nhf
##msf
##ytw
##fyr
##myd
##hin
##uts
##syl
##xsv
##ycf
##xvx
##tmh
##xfl
##hnn
##cdh
##xhn
##ihg
##lnm
##qse
##bfs
##asw
##gpn
##pvn
##ryn
##pmc
##ysv
##rkm
##eww
6rt
##cen
##vkx
##myr
##fqe
##qxs
##dde
##fgt
##reh
##vcd
##gqx
##iex
##afa
##ddy
##prg
##qrg
##atd
##rwv
##hpn
##xpp
##elm
##kmr
##kmw
##vfl
##nad
##kmf
##wvi
##sfl
##paw
##gfw
##fit
##gwr
##qfq
##ntq
##ppr
##wgq
##qnc
##fie
##gaa
##iqv
##nfs
##mec
##mns
##piv
##gdg
##inq
##nhr
6ed
##iyv
##sfr
##alv
##hnk
##pgr
##nin
##grs
##rsy
##cxs
##syd
##xgw
##dgd
##hrl
##qah
##xmq
##dey
##ymm
##gnv
##mtc
##dkd
##ntf
##aal
##vya
##tkx
##lnt
##khh
##amn
##mcl
##lky
##msd
##xkp
##qwq
##msy
##irg
##wsn
6dn
##crk
##sni
##eth
##rdy
66a
##vnf
##fxi
##hkd
##mcy
##ged
##lcn
##nkq
##xhq
##ydm
##fty
##wqg
##itd
##lhy
##xdm
##xcg
##ham
##mfw
##tam
6wg
##eeg
##rvq
##lrt
##esh
##ygp
##syc
##rng
##yqw
##hgq
##pwt
##cxy
##fel
##ksn
##avr
##nkn
##csg
##qdx
##wqv
##tew
##nsp
##vwc
##esm
##agv
##scx
##qir
##vip
##cfh
##din
##dcm
##pph
##mle
##icm
6en
##rkn
##mne
##cmw
##iac
##enf
##hqp
##qem
##raa
##mas
##pwg
##tak
##trw
##vxi
##kyc
##cql
##edc
##ykn
##nnp
##ikh
##sia
##frs
##xnk
##sxf
##thr
##cww
##sit
##ewg
##mdc
##cct
##ify
##fxp
##ibi
##pid
##yrh
##hgv
##qtt
##iyh
6ic
##eim
##hkw
##hce
##vic
##qyp
##dtp
##ivr
##qxi
##qdt
##ysn
##mvr
##qyv
##lcf
##isk
##rit
6pa
##tcr
##ryx
##ebt
6ga
##ygn
##was
##grn
##fme
##tta
##lps
##ykt
##wpf
##gda
##ctv
##hxm
6kn
##var
##tid
##ayk
##lqn
##rse
##nyw
##rna
##hkt
##ahk
##krk
6ax
##rrv
##llm
##hkg
##meg
##pns
##vhh
##qmc
##cag
##ekn
##ixi
6ct
##hgm
##vhf
6iq
##klr
##rwl
##ymq
##gqr
##hvt
##rst
##xiw
##lry
##nfk
##lkl
##ihp
##str
##sfp
##ixr
##qtl
##qdd
##mnr
##eyi
##wck
##laf
##vkt
##evh
##pmf
##flx
##fql
##hqn
##fcf
##wfp
##kah
##wmw
##tfm
##qnl
##svs
##fag
##ysa
##bxx
##nen
##avc
##nrl
##wfe
##ahs
##lar
##tpp
##fim
##srq
##pnm
##grm
##ysu
##efx
##mfb
##wwt
##hxa
##nls
##xpr
##fex
##pdy
##kis
##ikl
##nqh
##vsi
##niq
##fcy
##kee
##lqe
##ndn
##xqk
##vnq
##hal
##ate
##hry
##fwf
##dla
##xpq
##xve
##tri
##hdf
##fhl
##sgf
##yrp
##rrm
##pde
##ixf
##dnd
##yhe
##wsq
##cvi
##rgy
##hks
6qc
##vpc
##ncg
##qyt
##hft
##ndq
##amk
##wsi
##slt
##qkc
##wgn
##qhe
##atl
##skx
##ywn
##gps
##kfs
##sms
##dkn
##chd
##vfe
##adq
##qpw
##lpa
##gty
##mgs
##hvv
##yim
##mqa
##wwy
##pap
##mrq
##ccl
##tgr
##rpi
##fas
##yry
##dth
##rgp
##wgx
##lgm
##afv
6ek
##pwi
##rvk
##chm
##ccw
##xky
##pve
##iam
##kga
##rls
##lil
6vw
##cmk
##sdw
##nxa
##txk
##lhw
##lds
##ftk
##ykr
##lyi
##dma
##nqe
##shv
##igg
##fms
##pne
66s
##tmp
##ssx
##sss
##ftp
##yea
##wky
6th
##lvh
##wgr
##tlg
##rvm
##gta
##vdh
##kda
##xgd
##kqn
##kwm
##pfm
##fny
##tdd
##cak
6kk
##cga
##yir
##nsr
##yre
##aik
##dtq
##rdt
##lng
##vkl
##hvl
##iif
##qps
##fqs
##qet
##lfq
##ttr
##vmh
##wvt
##tes
##nfn
##vtd
##agy
##wlw
##kxv
##wce
##ksw
##skr
##gfr
##sge
##sif
##eda
##cmy
##saf
##tpe
##pcv
##gmt
##nkh
##emd
##kpm
##cnm
##mqe
##hfx
##iwh
##lha
##kkr
##llr
##sxd
##dtt
##cpf
##yss
##mgk
##mer
##tkq
6hr
##rhi
##hwn
##ieg
##psi
##xdy
##yfm
##ytg
##isy
##nah
##wex
##kvk
6lt
##iht
##mxv
##sdi
##qiq
##wkq
##mwg
##vke
##vts
##eed
##mmw
##rhe
##iqh
##nge
##drv
6iw
##fqq
##qxt
##rsp
##nlp
##vng
##lld
6yk
##sst
##igh
##vbf
##pmt
6yw
##flt
##ftl
##sag
##idq
##deb
##rgd
##ldq
##mpq
##kvc
##wdn
##pdd
##itq
##kks
##xrv
##bna
##lfh
6fk
##rqd
##tnw
##hhi
##fkh
##eti
##vhk
##ctn
##ltz
##cwd
##cyq
##ytt
##sgd
6qk
##kat
##mgg
##yyg
##hai
##era
##dll
##lfv
##tcx
##xtf
##fsf
##wvh
##eel
##smm
##spl
##tll
##akd
##ixm
##wfa
##ptc
##nvx
##thx
##rqv
##ahh
##mly
##whs
##xay
##mps
##ktv
##ati
##rgt
6pf
##qfm
##gvd
##rap
##rmh
##nix
##inr
##sls
##vcc
##anm
##pts
##tty
##ttt
##sga
##eis
##mxn
##yih
6ig
##dii
##wxy
##dct
##kgv
##dxv
##qgd
##wwc
##qee
##kpc
##qsx
##vym
##ekp
##xqx
##rbl
##ifn
##tyd
##ptl
##snp
##hpf
##imh
##aas
##sek
6yq
##chc
##nwe
##hfr
##vle
##vrp
##ker
##ris
##kem
##csd
##swq
##tgh
##pwq
##rqm
##ktr
##pcw
6qw
##vvb
##rec
##ved
##ysk
##dff
##hsl
6kp
##lcw
##lan
6kv
##fyf
##swl
##rvh
##sri
##tex
##eev
##wfh
6ta
##dkf
##lqc
##sgy
##fci
##vaq
##hhg
##ylk
##hmm
##eay
##myk
##xlx
##yha
##mir
##efg
##vpf
##npg
##mmq
##lgh
##vmm
##dxb
##pev
##txv
##xgt
##kwv
##rtk
##fpm
##ryc
##aqq
##yid
##dpn
##tnr
##vtf
6na
##mxx
##gpk
##ksd
##htd
##ara
##hcy
##kwx
##tkd
##tir
##hpg
##ymh
##rpn
##cyg
##tch
##stn
##ley
6hq
##tpd
##awc
##kef
##kya
##kst
##dpl
##qer
##ype
##nse
##msw
##pxs
6xx
##hrc
##qds
##vtl
##ihx
##igq
##stk
##nyd
##akx
##aac
##ssh
##mxr
6ve
6lp
##kcm
##whq
##mlr
##agw
##cxv
##dyg
##chs
##lda
##dxf
##xsa
##ffp
##yke
##xtw
##kxe
##pdf
##mvv
##vnp
##adg
##pxk
##gfy
##egv
6cd
##ale
##idp
##ddl
##nff
##qyl
##lgy
##yag
##kin
##mri
##fap
##gsp
##dvg
##rag
##xxv
##xcn
##fvy
##ram
##sgv
##cvh
##waa
##snc
##uiv
##air
##hlh
##rex
##xkg
##map
##pbn
6ka
##xkx
##qfz
##ltl
##kxt
##tvw
##hsq
##cyl
##eml
##nqf
##ssq
##stc
##mrw
##dsh
##tip
##nmm
##lss
##vvg
##dln
##pey
6ne
6fr
##vmi
##iqf
##wdl
##thi
##wei
##phg
##sla
6yr
##vvl
##vex
##hpx
##fhg
##lxe
##wlt
##xkq
##qgf
##nif
##ast
##etp
##wtd
##fkq
##iwa
##lvy
##lrm
##pmq
##pfl
##fge
##yfs
##fmw
##vmc
##pps
##rhy
##wwd
##kvl
##qiy
##fna
##cdt
##kqy
6ae
##ime
##kaq
##kwa
##nka
##rrh
##svn
##skp
##cyi
##erv
##syv
##gcy
##qac
##rnh
##ikd
##asv
##fwt
##wgd
##vdq
##vpx
##lgr
##wnw
##hnf
##gxh
##ggl
##gvl
##hsp
##elv
##vcq
##qlf
##xsr
##sxy
##pca
##edq
##vrw
##end
6sc
##qap
##nxl
##gqc
##qrc
##trr
##qks
##ckf
##snl
##sdc
##cem
##vaf
##hna
##chi
##rlt
##dfg
##ngw
##rsl
##tkw
##qyq
##vwx
##cyf
##hqy
##dce
##ran
##ffx
##tlt
##ayx
##pgk
##lgp
##vps
##gyy
##xhh
##prf
##yki
##tgk
##kms
##caa
##qfr
##mme
##hix
##wyc
6mx
##xny
##yan
##inh
##dlg
##uas
##yqp
##wip
##civ
##rdp
##dcf
##aeh
##xtp
##tsd
##nfc
##isx
##glw
##tpa
##cme
##wpy
##dpx
##ldp
##wmd
##exv
##ips
##fem
##eae
##ydl
##ikc
##ylh
##stt
##mtt
##dmn
##fhd
##scn
##evg
##vak
##yfx
##dec
##yvd
##sxc
##pwh
##hic
##qwn
##iil
##pkt
##ehc
##nfl
##xgg
##lxf
##tkr
##wqf
##wfr
##kgh
##grc
##caq
##wcg
##qkr
##awp
##nwk
##wms
##dhf
##nam
##xxy
##grw
##fat
##yew
##pgd
##ttx
##dny
##nsx
##vnr
##sqt
##vxv
##vkp
##mrm
##lfe
##wdp
##amt
##fdx
##gtc
##ifw
##swf
##xtm
##shg
##vis
##etv
##gcb
##wel
##vxt
##mfs
##hhh
##vhg
##fmr
##tey
##pcg
##gmh
##rmc
##dfk
##yxf
##etw
##yrt
##fgg
##ywl
##tst
##pti
##rds
##rry
##yql
6ew
##wnp
##wyr
6lm
##ltv
##vkn
##twg
##dvs
##tda
##nhq
##vxg
##fvq
##mwk
##cpp
##faf
##ept
##ytn
##hkx
##ycc
##wmm
##ykh
##lke
##gnx
##wks
##wik
##mrf
##fga
##qkt
##hik
##aax
##eik
##cwi
##xls
##xlt
##lac
##knm
##xrl
##viy
##hlk
##nlk
##xfh
6vi
##nxm
##sch
##wgh
##ysq
##tat
##pgs
##xxc
##tyr
##mck
##wmf
##gsw
##plk
##fcr
##xga
##aft
##cle
##qck
##ypi
##nsn
66k
##ddq
##yyn
##vph
##cah
##yaf
##mfi
##lff
##lci
##wyp
##phx
##xyd
##smt
##qfp
##bgs
##mbv
6hs
##lti
##icg
##dmx
##syr
##fet
##nqq
##tfy
##icd
##exh
##amw
##wdf
##ytp
##tvg
##esq
##vpm
6dl
##xvv
6yc
##vds
##ssg
##ekx
##enq
##pnf
##ccr
##zlc
##kxc
##swv
##mfc
##ifd
##mcc
##hfp
##dic
##rnm
##qlv
##vfc
##kgq
##fvn
##gvs
##dqg
6qp
##xcs
##dtl
##gya
##fif
##ays
##hnr
##rhq
##cwg
##emm
##ymi
##cwm
##yvf
##nml
##wdi
6hl
##nmt
##fca
##pik
##rci
##cpl
##ddk
##hgy
##smv
##mkl
##aiq
##egx
##ckx
##glc
##cws
##lqt
##wnq
##wnv
##gsb
##srx
##ycn
##nvh
##tvf
##icc
##eqc
##xwk
##ken
##chr
##qhk
##ptd
##gqk
##ndc
##lyd
##amd
##fcn
##ckt
##xcf
##vfn
##ntg
##hke
##fnk
##git
66n
##laq
##qsq
##giw
##pxd
##vpr
##kmv
##wmy
##acd
##nlm
##prd
##wpt
##ftm
##ksk
##kqc
##hpr
##shx
6gx
##pcp
##ifk
##pqn
##idr
##skn
##ctm
##ecy
##pyr
##prn
##tsv
6fy
##iyr
##evy
##qme
##eyw
##csi
##yqa
##cwk
##eqd
##xyt
##dsm
##wfc
##ksr
##dvc
6df
##grv
##dky
##sxg
##rfx
##ckn
##lvf
##kds
##axd
##vqf
##xgm
##pxr
##nca
##len
##evd
##cpw
##nga
##qpy
##yqy
##nqd
##dmk
##drp
##pym
##hdd
##iqr
##kwn
##kff
##qia
##hxi
##twr
##sgi
##edk
##eak
##amq
##pnv
##nhy
##sme
##yhf
##tin
##mqs
##qsf
##dpy
##ndx
##nsv
##ncx
##knp
##adv
##kcx
##efs
6yg
##gqe
##fic
##mgx
##qtf
##hfq
##lfp
##mva
##ryd
##sel
##nhl
6xy
##glf
##exb
##tqm
##icf
##xqt
##sam
##mmp
##rav
##whh
##wpi
##tdr
##tly
##gvh
##ygx
##gni
##lxm
##wvg
##cwl
##mrt
##gwd
##rhh
##wdw
##vvk
##xfw
##klt
##vnc
##qeq
##ewh
##tff
##rxk
##yei
##phc
##npc
##akr
##scu
##kie
##hln
##rdw
##ttk
##hlf
##nts
##kvh
##gil
##ydr
##agk
##eyf
##gep
##ehp
##phu
##qhq
##gry
##lpg
##spc
##iyc
##yif
##rkt
##ksf
##kyk
##ene
##rhc
##wxv
##pfr
6yv
##asr
##cdq
##sqm
##mfq
##vcy
##kxp
##iye
##vhp
##gvr
##nmp
##ixv
##dfn
##xhl
##gaq
##rcr
##mei
6rg
##yxd
##lbv
6at
##rdx
##lcs
##xlh
##wcd
##rnt
##yit
##tqr
##pee
##imp
##sid
##clh
##xam
##twv
##exl
##tyk
##rky
##iep
##pax
##ser
##smd
##hwv
##kns
##qlc
##tcw
##qgh
##iqq
##kxa
##hsx
##kxm
##gyn
##adp
##erh
##gwq
##kwq
##paf
##yhm
##gsf
##edt
##llt
##cpy
##qtg
##xcy
##dqp
##ila
##qxn
##wpg
##gqd
##xik
##ifq
##fah
##khk
##mtp
##frq
##yii
##crq
##adh
##tkv
##eef
##dfd
##pxv
##mvw
##xfy
##prl
##kpr
##aww
##ilc
##xiy
6ys
##mvx
##gse
##fqp
6qg
##vyv
##dxy
##idg
##nhp
##xxq
##vrq
##mvy
##rwt
##ekk
##fgq
##nvk
##tai
##rxi
##lct
##ydp
##ces
##laz
##val
##qvs
##fhw
6cl
##aaf
##wfw
##gax
##hiq
##dme
##vsy
##vsh
##kys
##krd
##arw
##thw
##lmq
##ymp
##eqf
##hwy
##wrs
##mcq
##ykw
##mrs
##shy
##mte
##pyg
##eaw
##xdq
##qfi
##ihy
##dpb
##rwf
##mhw
##ntw
##xwp
##hxd
##kax
##eif
##spe
6gl
##kpw
##xgb
##svy
##ktn
##ptp
##cwr
##tml
##ecl
##min
##xsh
##gll
##esc
##dwa
##ilv
##lyv
##lhi
##ldh
##sny
##tev
##asu
##nna
##wkh
##qym
##isa
##rca
##vlp
##fgf
##eee
##cnw
##dqr
##qqy
##dlp
##adf
##kct
##pes
##ags
6sd
##mqi
##gms
##acx
##rlp
##nnv
##app
##hhs
##cni
##gsk
##nsw
##qnn
##fvp
##mfg
##sct
##yml
##vik
##cxe
##rhg
##ayp
##rir
##eqy
##wwh
##ivq
##eas
##ccg
##dvm
##nwi
##dhk
##xmn
##imv
##dpg
##rlw
##ixc
##ysd
##dts
##sqs
##eyt
##tie
##rte
##irr
##yvi
##xll
##ikq
##hrf
##iry
##kqq
##siv
##ltr
##cnp
##xcp
##nvm
6xd
##yse
##vxl
##qxd
##std
##eer
##ars
##nem
##kev
##sfi
##ssr
##xii
##lsy
##dfm
##vwf
##vnt
##nwg
##fll
##wla
##arl
##pyf
##qfx
##ypt
##vvq
##xsl
##gmx
##aat
##leh
##ger
##mvm
##lpx
6ki
##bts
##cyw
##grk
##kkf
##vee
##myw
6wi
##dep
##cpm
##imm
##hhm
##piq
##kcf
##lkw
##csq
##mcg
##wpr
##grt
##lrf
##hva
##dsr
##vcl
##lmr
##vit
##vxy
##nqt
##sxl
##yhh
##nfa
##alc
##dvk
##dyp
##hnp
##sis
##hnt
##cwp
##nih
##mic
##nsa
##tea
##ywt
##ylx
##wca
##lfy
##nwa
##pwx
##fts
##ikw
##iwt
##vcf
##wws
##qwx
6ge
##gek
##vyr
##igy
##dlw
##fdv
##ish
##cyh
##qgg
##lne
##ins
##lvt
##zaf
##mvf
##vlk
##msp
##dsd
##cki
##mpe
##vag
##svl
##ccv
##wmi
##nlq
##nrq
##kgw
##lqg
##nkk
##lmh
##pfx
##tyl
6sw
##yrs
##lqh
##mst
##gel
##dew
##six
##iie
##ifs
##fgd
6ng
##gth
##yvw
##hgl
##gwn
##xnr
##ria
##sfe
##nnh
##hhw
##vxs
##wtn
##fsy
##rcp
##vwh
##dav
##qql
##lrd
##xac
##qdy
6vd
##liy
##eft
##wkv
##afh
##vxf
##vsx
##pxp
##apr
##wne
##cwt
##cxc
6kf
##iim
##sqh
##lmk
##ngs
##hwm
##vll
##qnh
##hmg
##qhp
##rtq
##ahc
##qdk
##ecp
##ake
##hih
##pwl
##san
6lv
##raf
##etk
##gga
##ywv
##vdn
##rqs
##fqr
##hpi
##rkc
##leg
##lwi
##gfx
##wxq
##gwh
##rmf
##gyd
##vvv
##hvr
##qpf
##gne
##res
##ant
##hdq
##hdk
##pkg
##lgv
6cr
##xgp
##xsx
##xnc
##pwd
##xwx
##xcl
##xfc
##qxx
##rfp
##mlt
##pxa
##dmy
##kwc
##gmc
##hel
6lq
##whe
##dli
##swm
##lnc
##ctg
##txy
6kd
##gpv
##rmk
##pse
##lnr
##rmn
##the
##iid
##wml
##gwf
6py
##rhw
##kil
##msg
##mgw
##aki
##ewv
##gii
##ary
##evt
##rqt
##edv
##hmi
##cre
##phl
6sv
##vme
##dsx
##svt
##twy
##qcr
##bln
##lhk
##lxh
##ktq
##lcl
##wli
##lgl
##giq
##dvq
##tdi
##vax
##fep
##qvm
##sen
##dfc
##dem
##rrl
##ebp
##wyw
##ais
##dvw
##ifl
##psc
##ehl
##hmp
##prk
##kfd
##wcr
##kse
##pir
##efp
##nwq
##ges
##ick
##ngt
##vci
6la
##lqv
##ist
##xmd
##eqk
##awv
##isl
##wsy
##icl
##ttv
##gvc
##sry
##sig
##wap
##tww
##dad
##hrk
##ckw
##eyn
##ycl
##hqg
##mxg
##lge
##cdl
6ry
##pge
##svc
##lri
##lte
##adm
##fqm
##lsk
##nwm
##hew
##cqm
##gkd
##qda
##qfa
##vql
##nat
6eq
##idx
##dtk
6xq
6tn
##atk
##dcn
##qfn
##fkd
##hfd
##wpx
##vre
##xty
##ncy
##vhx
6tk
##hgt
##kxh
##kkw
##qwp
##key
##fsr
##qei
##hgg
##fvi
##wtg
##qff
##tsp
##ahm
##rcf
##kaf
##yay
##lek
##drn
##kig
##vfp
##chg
##snf
##hfi
##zii
##tvt
##pip
##niy
##rhr
##fyk
##fch
##fcv
##txt
##rla
##rsr
##tpq
##flh
##qay
##fhv
##wnl
##xrf
##qpd
##rak
##chx
##gtp
##wnk
##msc
##hmk
##fti
##tmy
##pss
##vdy
##iea
##rqh
##nxx
##gst
##giv
##fvd
##xna
##yrd
##awr
##axq
##ydn
##wsx
##sye
##elr
##gsd
##xys
##xwf
##vfa
66w
##irw
##fkr
##ftd
##swt
##wxr
##rig
##pvg
##sec
##plb
##tdg
##nqa
##nds
##kcw
##cnr
##gkx
##ten
##tss
##arr
##ixe
##mvn
##tys
##xcr
##pnd
##cic
##nkl
##ilw
##inm
##mty
6dp
##pvs
##gvq
##qnx
##wqh
##rtc
##cck
##tkg
##wtr
##mnt
##fqc
##fxq
##frw
##klg
##pdh
##nft
##yni
##fhr
##aqh
##xwc
##mfv
6hn
##mpr
##aav
##ldk
##ypq
##hhq
##rdf
##her
##nym
##fcw
##iix
##sqg
##arq
##htr
##fwq
6re
##aqd
##yky
##rvn
##ehx
##vck
##dle
##ahw
##smr
##xri
##iwk
##lmd
##enw
##dgh
##lfd
##gtw
##pcr
##haq
##vrl
##rgs
##gtd
##mhe
##isc
##xwq
##mam
##qmp
##dyl
##yfd
##tvk
##pgq
##pcs
##xsi
##exa
##srp
##gye
##kxi
##let
##rfs
##yfa
##ssc
##fgs
##ytf
##cax
##kdv
##gtf
##ykk
##kbf
##hut
##qcm
##cat
##ymc
##cse
##trg
##ltn
##qsl
##ret
##aiw
##ltc
##mpv
##fig
##qyr
##frv
##gtn
##ydd
##nms
##lnp
##gsx
##tmx
##frn
##hcq
##cqd
##ftt
##apg
##nmv
##yci
##hme
##ncv
##yhr
##rtt
##nfr
##ynm
##gft
##kcq
##iqm
##yfh
##ycg
##xfn
##ifr
##hnd
6tr
##tht
##nrk
##ccf
##nlv
##idy
##viv
##lqf
##ncd
##lht
##nht
##fev
##fpk
##ics
##gdp
##fqk
##pwa
##xdt
##lqm
##hwh
##rlx
##ypk
##nla
##phw
##atv
##smx
##ari
##vlq
##aet
##rpc
##ngg
##xyp
##niv
##khf
##ldw
##dkb
##iww
##hvk
##vwd
##plx
##mnk
##kyx
##qgp
##tvn
##dvl
##eyk
##pqe
##tfw
##qhn
6wa
##rln
##xxr
##mqf
##ylp
##bls
##tdt
##pci
##aqe
##gng
##xqs
##ksl
##tgl
##nkc
##fse
##ysw
##riq
##dtn
##vmf
##qnq
##wrx
##ptg
##qms
##eea
##gen
##vqn
##yxx
##qae
##ahq
##sdd
##hxx
##dcv
6xl
##igm
##pxl
##vdp
##ntk
##lwg
##lyp
##cxq
##lgw
##fdl
6pw
##gtg
6dg
##xnx
##qqe
##tlp
##gpw
##qxr
##dhn
##rct
##bfk
6gk
##xld
##ial
##ams
##wfm
##aql
##ghm
##xax
6hk
##hxk
##whp
##ydw
##cdp
##yfi
##xyv
##bsl
##ahg
6wr
##nyy
6av
##dtf
##saq
##kmk
##fwa
##ktp
##fyi
##hla
##lem
##cfm
##ydy
##qvh
##pen
##rtl
##rmy
##rwh
##sgg
##kta
##xlv
##nqg
##kdx
##sdt
##xgv
##gcv
##iva
##ggy
##ndw
##dsy
##hir
##vrt
##mlp
##qmg
##eet
##gdh
##nxk
##mhc
##kmq
##det
##dcd
6ip
##fwv
##vmx
##lqp
##pht
##dig
6mi
##rnl
##pke
##rxy
##hgh
##mft
##wgs
##ldg
##phn
##hmn
##qcv
##dcw
##iiy
##agr
##qpc
##pag
##khg
##gar
##wia
##fhp
##xhk
##hip
6vp
##elt
##rsv
##cxk
##vgx
##slv
##wri
##kdd
##dmc
##lyn
##imx
##vgk
##mxm
##gsl
##paq
##dha
##qkp
##mss
6ar
6gy
##rpm
##flg
##wwr
6ts
##qed
6yf
##iwy
##gls
##mwq
##ckv
##kwl
##wek
##dnt
##gfd
##fcs
##htq
##fdq
##spx
##dda
##lxc
##aea
##srd
##ewd
##etl
##wxd
##lnd
##awn
##esl
##tqg
##tla
##qct
##few
##qye
##qth
##vww
##ymw
##kit
##vgm
##pmg
##esa
##rad
##qeg
##rdl
##rne
##qsr
6dw
##kep
##krh
##ylr
##vsd
##nnw
##yht
##lqq
##gcl
##cdw
##plp
##pgi
##knx
##hgx
6hf
##yxa
##kcn
##mmh
##ekh
##gyp
##yys
##fhk
##ghh
##tse
##cid
6cs
##dlh
##pfy
##neq
##keg
##gfl
##itn
##qgt
##twp
##iss
##fds
##emh
##cne
##yln
##rwq
##dgm
##hra
6nh
##pad
##srn
##him
##qdr
##hst
##vcn
##atn
##itc
##xak
##nyx
##qke
##asi
##afr
##kvm
##fma
##fix
##lrh
##rhn
##fni
##mkt
##mvi
##qmr
##fsh
##sih
##kbe
##qnf
6pl
##igt
##lmg
##dwy
##xfi
##qxc
##pyv
##dgg
##ked
##khx
##dgq
##lxx
##sbf
##hde
##khi
##lpf
##der
##wxk
##gnt
##ane
##psd
##ctd
##vmn
##lfm
##fmq
6ny
##bsn
##vtq
##ssd
##ggv
##rdc
##fwi
##wev
##bev
##qsk
##hrp
##tpw
##kvi
##ltp
##hhr
##mqx
##fxc
##avq
##tny
##tfk
##ksq
##dqd
##eig
##esd
##bfr
##qvg
##rmw
##vxa
##xea
##gke
##ypg
##cgm
##pqg
##weh
##feg
##ixy
##sce
6lc
##xnm
##ppi
##lvn
##teb
##whw
6qh
##spa
##pya
##vcw
##pit
##wty
##myy
##fqh
##yty
##llb
##mfp
##pav
##cha
##etn
##wis
##wyq
##irl
##vnn
6sn
##nel
##fda
##fnx
##dwm
##icp
6px
##lsi
##iee
##qmi
##ggc
##cdm
##eqw
##kei
##vpa
##hhf
##qlm
##dlr
##fky
##gia
##xhf
##efr
##ama
##hid
##hxn
##ghc
##wmr
##awx
##ffg
##mda
##lqr
##afc
##khl
##fyc
##vmw
##cvy
##ykv
##xxf
##wgg
##ray
##egw
##tgz
##psp
##xxx
##spv
##nit
##pff
##vfx
##mve
##arc
##hpd
##wll
##tcd
##ceg
##hnh
##pka
##tha
##rcc
##svr
##ntn
##hml
##lfc
##kdw
##xnv
##xww
##vyd
##eqg
##rvr
##ysx
##wdt
##wqx
##xem
##mil
##fgx
##rwy
##ghe
##yac
##krg
##egy
##wni
##nlw
##iel
##cmx
##vlg
##gkc
##ihk
##ltk
##yia
##irq
##ciw
##xan
##gyf
##rgk
##nct
##ywi
##vdt
##sey
##cmc
##wdk
##yip
##qni
##inw
##xpg
##hyp
##gla
##mmf
##yqh
##qqr
##tps
##ict
6gv
6sh
##psh
##frc
##qev
##ypy
##hcg
##tap
##wqa
##rws
##cyt
6sa
##irn
##wxm
6vf
##mni
##xbf
##xai
##xqd
##dmi
##lvm
##xag
##rtn
##nsq
##khv
##msn
##gtk
##mde
##dsn
##hyd
##xss
##psq
##mie
##tcg
##sui
##wvw
##psa
##xqy
##mpf
##ghx
##wpl
##sma
##gdd
##pyy
##enl
##yfv
##yfw
6nt
##ngl
##qns
##gxn
6hh
##cpv
##frt
##eph
##kvf
##sfw
##yth
##rxm
##nyf
##ngd
##qhr
##isg
##nqs
##imr
##rym
##xht
##fvc
##typ
6kl
##nxc
##hpl
##teg
##yvq
##fft
##hds
##cvn
##exw
##igp
##tfr
##pnr
##vxe
##acg
##fde
##anx
##twd
##rxx
##evp
##ktc
6in
##tgi
##msq
##lhl
##rpf
##lwn
##mik
##ksh
##yar
##enx
##klp
##nss
##tle
##cwh
##prc
##wde
##qcx
##tkn
##dmw
##cka
##nfp
##qly
##wrn
##sgq
##rey
##thy
##gim
##vrs
##ywy
##xms
##yww
##qhi
##eqv
##gqy
6ci
##ada
##trm
##rpv
##eyc
##vlb
##flk
##cgt
##cdg
##xiv
##pli
##xsw
##mcd
##esx
##vrf
##pra
##rcv
##wql
##iti
##ngq
##tvv
##pft
##phs
##kph
##gwk
##hfg
##tlq
##fld
##wqk
##tti
##ael
##axf
##tei
##iiw
6tg
##tsn
##wrg
##lma
##rfc
##siw
##ccx
##vua
##irp
##cpk
##atg
##npl
##kpf
##ler
##pfp
##wai
##yah
##hws
##pni
##xad
##xis
##qqt
##lml
##nyp
##ape
##ewe
##wgp
##fir
##mip
##eye
##vqs
##vtk
##ghw
##lts
##igx
##kam
##ven
##kmy
##gmn
##xhg
##fcl
##vhc
##mhp
##iys
##tcc
##eeq
##fmv
##fyl
##iet
##kgs
##egs
##kth
##tdv
##eid
##exr
6pg
##lpk
6ei
##llx
##imt
##aar
##npk
##itx
##nye
##cug
##tka
##vii
##rai
##aqs
##yed
##fqn
##rwc
##hsn
##rye
##gdq
##dtg
##tra
##icq
6il
##fxr
##fxb
##tup
##ixs
##vxq
##awt
##xkm
##slh
##fyq
6nw
##heq
##laa
##ikg
##xpv
##xwi
##dnq
##dsf
##yyp
##vnx
##tqq
##rvt
##fsg
##ssw
##caw
##rwk
##wpq
##lft
##vpp
6tl
##gra
##wxl
##ppy
##eys
##mkx
##csk
##gah
##mhi
##fiq
##iyt
##mqd
##isi
##rvg
##hhn
##xli
##gix
##fhx
##gvt
##rsn
##vvx
6hy
##pwk
##ynq
##kna
##seq
6wc
##vnv
##ffh
6et
##tvx
##xec
##emv
6kw
##qxy
##mws
##qlx
##nrg
##krs
##qec
##ysp
##rkk
##mha
##asn
##deg
##pkx
##nxp
##ywd
##mch
6mc
##yrv
##tmi
##sfn
##kkh
##vsc
##xyr
##qwr
##ska
6es
##xgr
##wcl
##qmv
##qkv
##nvw
##ygk
##cxg
##ehr
##xgx
##pqy
##rgw
##swy
##hfh
##pfg
##tnh
##vxx
##yld
6mh
##yvx
##gxf
##eii
##trd
##ykx
##ygs
##dvt
##rxd
##cxw
##tlc
##kkv
##yrc
##ffl
##pnt
##evm
##vrn
##kts
##wav
##rin
##fnw
##sfm
##mvq
##knt
##isq
##hdl
6yi
##gas
6wp
##hha
##yrw
##hki
##eix
##lvp
##idl
6er
##lxq
##nak
##ksx
##nky
##cxm
##ift
6pm
##gae
##ndg
##vin
6ff
##vli
##thd
##cgw
##sph
##rfa
##hxy
##ltd
##wyg
##apw
##ihr
##egh
##gte
##ygc
6va
##dpf
##xtg
##kxw
##gav
##pwf
##pcl
##qve
##ckg
##qvw
##pxg
##axh
##ggt
6rh
##erm
##dva
##lhx
##cmh
##xed
##pqh
##hwk
##rvs
##mxk
##hvw
6gn
##hya
##grx
##pil
##vhm
##yrg
##ppm
##vqx
##bvg
##gxq
##hgd
##ens
##mtm
##dmm
##vyq
##nan
##aie
##aqf
##whf
##dfv
##liw
##iwr
##erl
##hri
##sya
##gyx
##pei
##rwg
##aid
##lwl
##gwg
##mhv
##qhw
##qws
##agp
##ayi
##ygt
##wwk
##wqq
##vwy
##xhr
##rrq
##qqp
##ewi
##hnl
##ntl
##dax
##cfy
##wsc
##siq
##tga
##ayn
##hmw
##ree
##qtc
##srf
##eiv
6ay
##qkd
##eiq
6vh
##hpp
##exp
##mnc
##adx
##flb
##cvg
##lcq
##ryp
6hp
##dit
##hsm
##fxv
##qti
##pxz
##adn
##grr
##wti
##rra
##wir
##ihi
##mrx
##rql
##ees
##iei
##lyy
6qf
##gwa
##iap
##sqe
##kak
##wwi
##als
##ywe
##tvl
##ihe
##kqr
##yhi
##thq
##taf
##rdh
##lnn
##ydv
##gdr
##dvi
##she
##spf
##vei
##cts
##qvy
##hxq
##sng
6mm
##hqa
##rli
##nni
##fqv
##lhs
##yvt
##cps
##vyy
##tgv
6qy
##xqf
##tfg
##exd
##ied
6kg
##wnh
##tec
##flr
##fha
##pwc
##skw
##wkt
##llp
##pvi
##afs
##gck
##ktd
##eha
##qis
##psf
##fle
##qya
##lll
##cnv
##lxy
##rha
##tis
##rip
##skv
##hyc
##vap
##vse
##ggd
##fff
##hsw
##hpa
##dal
##dnh
6eh
##mhd
##mkg
##tgy
##cef
##pws
##yeh
##vah
##kih
##sex
##wht
##wet
##yds
##cvr
##wnf
##nfy
##dge
##kka
##tsc
##htk
##ypd
##syx
##wke
##ggp
##hkk
##ess
##pwy
##rmx
##why
##sac
##myf
##gfa
##mmy
##hms
##dxl
##chl
##efd
##pex
##syy
##lrz
##npi
##lmt
##spk
##fid
##dqx
##dev
##ghv
##ysc
##lcg
##hpe
##ehq
##ega
##neg
##xgf
##xvg
##icw
##peh
6tf
##emb
##lck
##rhs
##ciy
##dmd
##psl
##vfd
##ref
##lik
##rmp
##xyc
##nar
##dmf
6ii
##lln
##afk
##iga
##mla
##kfc
##ynv
##vln
##rnf
##xvy
##ssb
##csa
##wae
6pq
##iii
##ahr
##cpx
##xxd
##hch
##fla
##sws
##ynn
##dww
##plf
##wmn
##ydg
##wey
##sgx
##mvd
##kxr
##asp
##yaa
##qyd
##sre
##afp
##vqi
##dyd
##nxq
##gal
##til
##lcd
##fke
6ws
##gkg
##mim
##tfv
##axs
##ggq
##wkl
##fxs
##fhi
##crc
##tmg
##dxp
##veh
##dwr
##igd
##iae
##xqv
##cfb
##kll
##def
##ymy
##lai
##fpw
##mpw
##vtr
##vgv
##kae
##vut
##wfk
##ekw
##gpc
##ghn
##emn
##nii
##atf
##tac
##ypa
##ixp
##gsi
##yrk
##krc
##pat
##pqf
##iai
##xth
##dqv
##pdg
##glk
6pi
##tsh
##pva
##xcm
##ywx
##xyl
##lcr
6cx
##nrd
##mcs
##ssp
##aem
##rxs
##dil
6ps
##fpa
##eqm
##xyn
##vkv
##nkw
##lpe
##vrc
##vvr
##ghk
##qnv
##rsb
##xxw
##dsc
##net
##yyh
##ttd
##fay
##vml
##trv
##rtd
##yyv
##rta
##mrd
##inf
##ndi
##erp
##naw
##qqs
##vhd
##mvc
##acp
##shk
##tic
##aqk
##dwg
##mfh
##qnr
##lkp
##qcf
##rkf
##wcp
##qvr
##ikp
##kqm
##svk
##whv
##dhw
##aeg
##erq
6eg
##qqi
##qqg
##ndm
##zyd
##vlw
##xxn
##ink
##wyh
##mew
##mxs
##wrh
##lpw
##kqp
##yns
##lqy
##yqr
##gce
##ynx
##lkv
##aci
##fpl
##ceq
##lep
##knn
##rwd
##frm
##ytx
##dta
##rdq
##cwc
##ymf
##iqe
##snh
##rqn
##vrx
##kcv
##kip
##scy
##mtw
##gdi
##xtl
##dpi
##rvv
##tya
##mae
##kel
##itw
##tpt
##pkd
##arg
6ty
##apa
##flv
##qqa
##tki
##slw
##wiy
##qmy
6xh
##gkt
##kni
##tsf
##iqn
##myl
##xmi
##pgt
##knh
##tnl
##lrp
##nyl
##thc
##npm
##ywa
##cte
##wwg
##pic
##cna
##nkr
##fhs
##ipd
##pth
##cex
##fcq
##qrw
##krn
##wrk
##lvi
##iks
6rx
##vvt
##cvs
##lad
##ped
##wha
##ash
##yav
##mnx
##hhe
##avt
##vyp
##wsk
6qr
6sg
##ecf
##sly
##tqc
##gxg
##wkc
##qwc
##kdm
##ipx
##grq
##mfm
##xtk
